<pad>	0
<unk>	0
<bos>	0
<eos>	0
<|system|>	0
<|user|>	0
<|assistant|>	0
<|end|>	0
<|context|>	0
<|question|>	0
<|answer|>	0
<|evidence|>	0
<|think|>	0
<|final|>	0
<|verify|>	0
<|claim|>	0
<|stance|>	0
<|url|>	0
<|email|>	0
<|phone|>	0
<|rrn|>	0
<|address|>	0
<|person|>	0
<|org|>	0
<0x00>	0
<0x01>	0
<0x02>	0
<0x03>	0
<0x04>	0
<0x05>	0
<0x06>	0
<0x07>	0
<0x08>	0
<0x09>	0
<0x0A>	0
<0x0B>	0
<0x0C>	0
<0x0D>	0
<0x0E>	0
<0x0F>	0
<0x10>	0
<0x11>	0
<0x12>	0
<0x13>	0
<0x14>	0
<0x15>	0
<0x16>	0
<0x17>	0
<0x18>	0
<0x19>	0
<0x1A>	0
<0x1B>	0
<0x1C>	0
<0x1D>	0
<0x1E>	0
<0x1F>	0
<0x20>	0
<0x21>	0
<0x22>	0
<0x23>	0
<0x24>	0
<0x25>	0
<0x26>	0
<0x27>	0
<0x28>	0
<0x29>	0
<0x2A>	0
<0x2B>	0
<0x2C>	0
<0x2D>	0
<0x2E>	0
<0x2F>	0
<0x30>	0
<0x31>	0
<0x32>	0
<0x33>	0
<0x34>	0
<0x35>	0
<0x36>	0
<0x37>	0
<0x38>	0
<0x39>	0
<0x3A>	0
<0x3B>	0
<0x3C>	0
<0x3D>	0
<0x3E>	0
<0x3F>	0
<0x40>	0
<0x41>	0
<0x42>	0
<0x43>	0
<0x44>	0
<0x45>	0
<0x46>	0
<0x47>	0
<0x48>	0
<0x49>	0
<0x4A>	0
<0x4B>	0
<0x4C>	0
<0x4D>	0
<0x4E>	0
<0x4F>	0
<0x50>	0
<0x51>	0
<0x52>	0
<0x53>	0
<0x54>	0
<0x55>	0
<0x56>	0
<0x57>	0
<0x58>	0
<0x59>	0
<0x5A>	0
<0x5B>	0
<0x5C>	0
<0x5D>	0
<0x5E>	0
<0x5F>	0
<0x60>	0
<0x61>	0
<0x62>	0
<0x63>	0
<0x64>	0
<0x65>	0
<0x66>	0
<0x67>	0
<0x68>	0
<0x69>	0
<0x6A>	0
<0x6B>	0
<0x6C>	0
<0x6D>	0
<0x6E>	0
<0x6F>	0
<0x70>	0
<0x71>	0
<0x72>	0
<0x73>	0
<0x74>	0
<0x75>	0
<0x76>	0
<0x77>	0
<0x78>	0
<0x79>	0
<0x7A>	0
<0x7B>	0
<0x7C>	0
<0x7D>	0
<0x7E>	0
<0x7F>	0
<0x80>	0
<0x81>	0
<0x82>	0
<0x83>	0
<0x84>	0
<0x85>	0
<0x86>	0
<0x87>	0
<0x88>	0
<0x89>	0
<0x8A>	0
<0x8B>	0
<0x8C>	0
<0x8D>	0
<0x8E>	0
<0x8F>	0
<0x90>	0
<0x91>	0
<0x92>	0
<0x93>	0
<0x94>	0
<0x95>	0
<0x96>	0
<0x97>	0
<0x98>	0
<0x99>	0
<0x9A>	0
<0x9B>	0
<0x9C>	0
<0x9D>	0
<0x9E>	0
<0x9F>	0
<0xA0>	0
<0xA1>	0
<0xA2>	0
<0xA3>	0
<0xA4>	0
<0xA5>	0
<0xA6>	0
<0xA7>	0
<0xA8>	0
<0xA9>	0
<0xAA>	0
<0xAB>	0
<0xAC>	0
<0xAD>	0
<0xAE>	0
<0xAF>	0
<0xB0>	0
<0xB1>	0
<0xB2>	0
<0xB3>	0
<0xB4>	0
<0xB5>	0
<0xB6>	0
<0xB7>	0
<0xB8>	0
<0xB9>	0
<0xBA>	0
<0xBB>	0
<0xBC>	0
<0xBD>	0
<0xBE>	0
<0xBF>	0
<0xC0>	0
<0xC1>	0
<0xC2>	0
<0xC3>	0
<0xC4>	0
<0xC5>	0
<0xC6>	0
<0xC7>	0
<0xC8>	0
<0xC9>	0
<0xCA>	0
<0xCB>	0
<0xCC>	0
<0xCD>	0
<0xCE>	0
<0xCF>	0
<0xD0>	0
<0xD1>	0
<0xD2>	0
<0xD3>	0
<0xD4>	0
<0xD5>	0
<0xD6>	0
<0xD7>	0
<0xD8>	0
<0xD9>	0
<0xDA>	0
<0xDB>	0
<0xDC>	0
<0xDD>	0
<0xDE>	0
<0xDF>	0
<0xE0>	0
<0xE1>	0
<0xE2>	0
<0xE3>	0
<0xE4>	0
<0xE5>	0
<0xE6>	0
<0xE7>	0
<0xE8>	0
<0xE9>	0
<0xEA>	0
<0xEB>	0
<0xEC>	0
<0xED>	0
<0xEE>	0
<0xEF>	0
<0xF0>	0
<0xF1>	0
<0xF2>	0
<0xF3>	0
<0xF4>	0
<0xF5>	0
<0xF6>	0
<0xF7>	0
<0xF8>	0
<0xF9>	0
<0xFA>	0
<0xFB>	0
<0xFC>	0
<0xFD>	0
<0xFE>	0
<0xFF>	0
▁이	-0
니다	-1
▁있	-2
▁그	-3
으로	-4
▁수	-5
▁사	-6
에서	-7
▁대	-8
▁하	-9
▁것	-10
▁가	-11
▁1	-12
▁지	-13
▁기	-14
습니다	-15
▁아	-16
▁2	-17
▁시	-18
▁보	-19
▁전	-20
하는	-21
▁제	-22
▁한	-23
▁다	-24
▁정	-25
▁t	-26
in	-27
▁자	-28
▁a	-29
하고	-30
▁주	-31
▁위	-32
on	-33
er	-34
▁나	-35
▁경	-36
▁인	-37
▁일	-38
▁상	-39
▁부	-40
▁중	-41
했다	-42
he	-43
▁모	-44
▁어	-45
..	-46
▁등	-47
re	-48
▁해	-49
▁공	-50
▁있는	-51
ti	-52
▁-	-53
▁있다	-54
▁내	-55
▁여	-56
▁않	-57
00	-58
▁관	-59
▁고	-60
▁때	-61
이다	-62
▁없	-63
▁마	-64
▁소	-65
▁오	-66
▁유	-67
en	-68
▁생	-69
▁조	-70
▁3	-71
▁우	-72
▁비	-73
▁의	-74
▁개	-75
▁안	-76
합니다	-77
▁만	-78
입니다	-79
▁되	-80
▁말	-81
▁the	-82
▁s	-83
▁바	-84
▁있습니다	-85
▁구	-86
▁거	-87
▁o	-88
▁‘	-89
▁연	-90
▁방	-91
▁신	-92
▁예	-93
지만	-94
al	-95
들이	-96
▁c	-97
▁발	-98
▁서	-99
▁선	-100
▁무	-101
▁통	-102
▁미	-103
▁국	-104
or	-105
es	-106
▁도	-107
ed	-108
▁세	-109
▁스	-110
▁동	-111
▁많	-112
▁문	-113
▁최	-114
▁저	-115
▁분	-116
▁같	-117
적인	-118
an	-119
▁20	-120
▁p	-121
▁더	-122
이라	-123
▁영	-124
▁(	-125
at	-126
▁또	-127
▁실	-128
▁성	-129
하게	-130
▁및	-131
▁진	-132
에게	-133
적으로	-134
is	-135
▁“	-136
▁현	-137
▁사람	-138
하여	-139
▁원	-140
▁'	-141
▁결	-142
▁of	-143
▁w	-144
에는	-145
까지	-146
▁in	-147
it	-148
한다	-149
▁따	-150
▁an	-151
tion	-152
해서	-153
▁우리	-154
▁대한	-155
▁계	-156
▁장	-157
▁4	-158
▁알	-159
▁:	-160
▁5	-161
ro	-162
었다	-163
ar	-164
▁교	-165
▁강	-166
▁사용	-167
▁확	-168
▁할	-169
▁불	-170
▁f	-171
▁좋	-172
▁추	-173
는데	-174
▁들	-175
▁감	-176
면서	-177
ing	-178
▁매	-179
▁m	-180
▁적	-181
▁경우	-182
하기	-183
▁재	-184
▁받	-185
▁당	-186
ic	-187
▁설	-188
▁특	-189
▁단	-190
다는	-191
▁후	-192
▁반	-193
▁d	-194
▁노	-195
부터	-196
▁b	-197
▁배	-198
▁작	-199
▁회	-200
as	-201
▁요	-202
▁and	-203
▁포	-204
▁생각	-205
▁차	-206
▁필	-207
▁건	-208
▁아니	-209
▁게	-210
▁때문	-211
▁S	-212
들은	-213
le	-214
▁과	-215
▁것이	-216
리고	-217
▁입	-218
▁하는	-219
▁T	-220
▁A	-221
▁물	-222
▁프	-223
다고	-224
▁C	-225
▁남	-226
▁출	-227
▁201	-228
▁파	-229
ent	-230
▁그러	-231
▁두	-232
니까	-233
▁함	-234
들의	-235
▁위해	-236
▁6	-237
하지	-238
도록	-239
▁하나	-240
▁직	-241
▁올	-242
▁운	-243
▁참	-244
▁잘	-245
▁행	-246
▁데	-247
▁"	-248
라고	-249
▁피	-250
▁역	-251
렇게	-252
▁못	-253
▁그런	-254
▁변	-255
om	-256
▁필요	-257
▁달	-258
▁e	-259
▁활	-260
▁새	-261
▁학	-262
▁가능	-263
▁to	-264
▁살	-265
▁통해	-266
▁평	-267
으며	-268
▁re	-269
▁본	-270
ation	-271
들을	-272
▁있어	-273
▁문제	-274
el	-275
▁10	-276
20	-277
▁집	-278
기를	-279
▁따라	-280
▁같은	-281
▁가지	-282
▁김	-283
▁목	-284
▁지금	-285
▁다른	-286
▁<	-287
▁금	-288
▁점	-289
▁간	-290
▁드	-291
▁7	-292
이나	-293
▁열	-294
ac	-295
▁된	-296
us	-297
▁명	-298
▁이용	-299
▁들어	-300
▁한국	-301
▁P	-302
▁한다	-303
▁함께	-304
▁그리고	-305
▁때문에	-306
ec	-307
▁I	-308
▁그래	-309
비스	-310
▁화	-311
▁외	-312
되는	-313
et	-314
에서는	-315
▁하고	-316
이트	-317
▁지난	-318
▁맞	-319
▁투	-320
▁증	-321
▁법	-322
▁코	-323
▁.	-324
NA	-325
▁검	-326
▁시간	-327
▁처	-328
▁만들	-329
▁높	-330
라는	-331
▁것은	-332
됩니다	-333
▁많은	-334
하면	-335
▁h	-336
▁것으로	-337
▁M	-338
▁것을	-339
▁산	-340
▁카	-341
▁심	-342
▁환	-343
▁초	-344
▁제공	-345
▁번	-346
▁8	-347
▁앞	-348
▁업	-349
세요	-350
▁가장	-351
▁약	-352
▁종	-353
이라고	-354
에도	-355
▁양	-356
▁호	-357
▁편	-358
하며	-359
▁th	-360
▁판	-361
▁근	-362
▁이런	-363
▁체	-364
ME	-365
▁각	-366
▁시작	-367
해야	-368
▁프로	-369
ur	-370
▁이상	-371
▁합니다	-372
▁리	-373
ol	-374
▁아이	-375
▁것이다	-376
▁|	-377
▁찾	-378
거나	-379
▁위한	-380
...	-381
▁청	-382
▁관련	-383
▁했	-384
NAME	-385
▁9	-386
▁모든	-387
보다	-388
지는	-389
▁자신	-390
되어	-391
ul	-392
▁에	-393
▁여러	-394
▁치	-395
▁[	-396
▁손	-397
▁크	-398
대로	-399
하다	-400
▁표	-401
리는	-402
▁속	-403
il	-404
▁타	-405
▁n	-406
▁정보	-407
▁식	-408
▁지원	-409
▁많이	-410
▁사업	-411
▁지역	-412
레이	-413
▁너	-414
▁규	-415
리를	-416
▁서비스	-417
ig	-418
▁임	-419
▁디	-420
▁메	-421
▁먹	-422
▁19	-423
자가	-424
un	-425
▁취	-426
▁정도	-427
겠습니다	-428
▁완	-429
▁복	-430
▁l	-431
id	-432
▁걸	-433
스트	-434
어요	-435
▁방법	-436
▁진행	-437
▁누	-438
▁항	-439
▁느	-440
었습니다	-441
im	-442
▁온	-443
000	-444
▁다양	-445
▁음	-446
▁박	-447
기에	-448
▁될	-449
▁밝	-450
▁싶	-451
사를	-452
▁이렇게	-453
st	-454
▁B	-455
▁언	-456
▁총	-457
▁부분	-458
▁대해	-459
이지	-460
▁D	-461
였다	-462
▁형	-463
▁그래서	-464
▁다음	-465
▁질	-466
▁내용	-467
▁민	-468
으면	-469
▁돌	-470
▁또한	-471
am	-472
▁책	-473
ve	-474
▁미국	-475
▁채	-476
▁충	-477
성을	-478
▁큰	-479
▁또는	-480
로운	-481
▁어떤	-482
▁준	-483
▁사실	-484
▁버	-485
이고	-486
▁줄	-487
▁제품	-488
자는	-489
▁고객	-490
▁키	-491
▁현재	-492
▁L	-493
▁기업	-494
▁중요	-495
았다	-496
기도	-497
▁확인	-498
지를	-499
▁F	-500
▁사회	-501
▁광	-502
||	-503
▁하지만	-504
▁좀	-505
▁창	-506
▁이번	-507
▁세계	-508
▁g	-509
ow	-510
--	-511
▁라	-512
▁E	-513
처럼	-514
▁없는	-515
정을	-516
▁다양한	-517
▁효	-518
▁발생	-519
ut	-520
▁정부	-521
ce	-522
▁담	-523
▁모두	-524
▁R	-525
▁순	-526
ot	-527
이라는	-528
▁날	-529
들에게	-530
▁로	-531
기가	-532
력을	-533
장을	-534
▁다시	-535
▁글	-536
▁있을	-537
▁0	-538
▁했다	-539
▁플	-540
▁상황	-541
시간	-542
▁is	-543
▁네	-544
▁않는	-545
▁좋은	-546
▁독	-547
ter	-548
▁아니라	-549
▁기술	-550
▁토	-551
▁힘	-552
▁협	-553
위원	-554
▁접	-555
자의	-556
▁운영	-557
▁친	-558
),	-559
▁서울	-560
▁대표	-561
▁곳	-562
▁연구	-563
▁for	-564
▁얼	-565
ith	-566
▁그것	-567
▁절	-568
od	-569
▁애	-570
▁커	-571
▁st	-572
▁결과	-573
▁볼	-574
▁교육	-575
ly	-576
19	-577
▁어떻	-578
▁있고	-579
▁눈	-580
▁마음	-581
▁개인	-582
▁합	-583
▁이야	-584
os	-585
▁H	-586
▁포함	-587
했습니다	-588
▁트	-589
▁가지고	-590
▁관계	-591
상을	-592
▁G	-593
▁너무	-594
된다	-595
▁바로	-596
▁con	-597
▁개발	-598
.0	-599
기는	-600
▁말씀	-601
장은	-602
되고	-603
▁갖	-604
▁것입니다	-605
성이	-606
▁12	-607
▁이어	-608
▁어떻게	-609
▁넘	-610
▁전문	-611
▁브	-612
▁태	-613
▁뒤	-614
ver	-615
▁pro	-616
▁권	-617
이터	-618
▁200	-619
▁보고	-620
▁게임	-621
▁용	-622
▁이것	-623
화를	-624
▁W	-625
아요	-626
▁북	-627
이는	-628
▁이후	-629
됐다	-630
가는	-631
▁등을	-632
▁향	-633
▁선택	-634
▁쓰	-635
▁이제	-636
▁그렇	-637
시는	-638
▁대해서	-639
▁새로운	-640
▁클	-641
들과	-642
▁설명	-643
▁11	-644
▁삼	-645
▁중국	-646
▁상기	-647
▁with	-648
▁빠	-649
하면서	-650
uc	-651
센터	-652
um	-653
em	-654
▁베	-655
▁관리	-656
▁이미	-657
▁되는	-658
▁논	-659
ra	-660
▁밝혔	-661
▁시장	-662
그램	-663
▁N	-664
▁제가	-665
▁그러나	-666
▁이유	-667
▁오늘	-668
▁K	-669
▁경제	-670
....	-671
10	-672
▁끝	-673
▁있도록	-674
▁만들어	-675
▁투자	-676
▁The	-677
**	-678
스템	-679
▁길	-680
▁특히	-681
다면	-682
▁일본	-683
▁추가	-684
리가	-685
▁허	-686
if	-687
주의	-688
▁말했다	-689
▁국가	-690
▁패	-691
▁즐	-692
▁사이	-693
▁30	-694
▁계획	-695
가지	-696
식을	-697
사가	-698
res	-699
▁수도	-700
출장	-701
▁농	-702
사업	-703
라인	-704
ag	-705
▁됩니다	-706
▁테	-707
▁해당	-708
▁은	-709
ts	-710
▁on	-711
▁밝혔다	-712
▁되어	-713
페이지	-714
tic	-715
▁천	-716
▁있었	-717
▁계속	-718
▁백	-719
에서도	-720
통령	-721
ab	-722
▁씨	-723
▁승	-724
ity	-725
▁이러	-726
▁군	-727
사는	-728
▁블	-729
학교	-730
▁첫	-731
▁늘	-732
▁잡	-733
인데	-734
▁15	-735
▁v	-736
ri	-737
있는	-738
▁존	-739
▁별	-740
▁내가	-741
▁기능	-742
▁있으며	-743
▁된다	-744
라도	-745
▁O	-746
th	-747
▁않고	-748
▁없다	-749
▁국내	-750
▁왜	-751
▁동안	-752
▁as	-753
▁레	-754
장이	-755
이스	-756
ere	-757
▁여기	-758
▁저희	-759
▁일반	-760
▁최근	-761
▁그런데	-762
기업	-763
원이	-764
정보	-765
▁인터	-766
▁보면	-767
▁가격	-768
▁나타	-769
op	-770
치를	-771
▁ex	-772
▁돈	-773
▁측	-774
▁기준	-775
.1	-776
▁면	-777
▁직접	-778
▁준비	-779
▁야	-780
시면	-781
회의	-782
oc	-783
▁활동	-784
▁안전	-785
▁그렇게	-786
▁국민	-787
▁실제	-788
사의	-789
자를	-790
▁있는데	-791
ir	-792
랜드	-793
▁있다는	-794
▁의미	-795
▁상품	-796
▁대통령	-797
▁찾아	-798
▁엄	-799
▁모습	-800
▁대상	-801
▁조금	-802
ate	-803
▁활용	-804
▁몇	-805
▁막	-806
▁처음	-807
▁환경	-808
▁맛	-809
겠다	-810
▁위원	-811
▁어려	-812
▁갈	-813
▁이러한	-814
▁뭐	-815
▁쉽	-816
인이	-817
도를	-818
▁be	-819
▁정말	-820
▁상태	-821
▁구성	-822
원을	-823
▁같이	-824
▁이해	-825
▁참여	-826
ud	-827
네요	-828
시아	-829
▁귀	-830
ay	-831
▁병	-832
서는	-833
ion	-834
▁적용	-835
ad	-836
▁that	-837
▁나는	-838
▁사진	-839
▁그는	-840
▁하나님	-841
▁이를	-842
▁일부	-843
▁전체	-844
지고	-845
▁프로그램	-846
▁우리가	-847
▁여행	-848
▁아닌	-849
▁알려	-850
▁당신	-851
▁사랑	-852
▁얻	-853
▁영향	-854
▁벌	-855
▁최고	-856
▁무엇	-857
qu	-858
어나	-859
▁분석	-860
▁판매	-861
▁위해서	-862
▁않은	-863
시키	-864
▁축	-865
▁효과	-866
▁/	-867
▁먼	-868
이며	-869
▁잠	-870
▁시스템	-871
▁등의	-872
▁머	-873
므로	-874
▁와	-875
▁없이	-876
로나	-877
▁무료	-878
ment	-879
ure	-880
주는	-881
▁자신의	-882
▁홍	-883
▁건강	-884
▁경험	-885
og	-886
▁몸	-887
▁보여	-888
자인	-889
▁자동	-890
▁기본	-891
▁결정	-892
▁여러분	-893
▁시설	-894
▁데이터	-895
▁100	-896
▁1.	-897
다가	-898
).	-899
▁U	-900
어서	-901
▁도움	-902
▁좋아	-903
▁하면	-904
▁있었다	-905
졌다	-906
▁있으	-907
하려	-908
pp	-909
▁폭	-910
▁al	-911
▁예정	-912
▁설치	-913
▁답	-914
립니다	-915
▁받아	-916
▁나오	-917
부분	-918
▁가족	-919
▁삶	-920
▁최대	-921
원의	-922
뉴스	-923
▁물론	-924
▁저는	-925
라이	-926
▁철	-927
▁#	-928
▁과정	-929
▁증가	-930
▁구매	-931
력이	-932
드는	-933
ess	-934
▁관심	-935
리스	-936
▁문화	-937
▁응	-938
▁아무	-939
▁by	-940
▁기록	-941
했던	-942
ch	-943
▁휴	-944
▁유지	-945
▁해야	-946
▁떠	-947
▁com	-948
르면	-949
▁정책	-950
▁난	-951
▁있다고	-952
▁평가	-953
▁이름	-954
의를	-955
▁필요한	-956
회를	-957
랍니다	-958
▁사람이	-959
▁즉	-960
▁영화	-961
교육	-962
▁해서	-963
리에	-964
▁높은	-965
▁매우	-966
▁우리는	-967
ore	-968
▁돌아	-969
▁어느	-970
▁기대	-971
▁급	-972
igh	-973
▁범	-974
▁얼마	-975
▁월	-976
▁중요한	-977
▁산업	-978
▁업무	-979
기관	-980
▁감사	-981
▁죽	-982
▁기자	-983
▁놓	-984
▁골	-985
▁올해	-986
▁18	-987
▁침	-988
▁학생	-989
시에	-990
▁낮	-991
▁In	-992
료를	-993
▁해결	-994
스를	-995
원은	-996
▁V	-997
▁얘	-998
▁위치	-999
▁여성	-1000
▁알아	-1001
▁마련	-1002
마트	-1003
▁추진	-1004
.2	-1005
ated	-1006
201	-1007
▁성공	-1008
시오	-1009
▁더욱	-1010
▁콘	-1011
30	-1012
▁생산	-1013
▁res	-1014
인의	-1015
▁요구	-1016
하였	-1017
예요	-1018
인지	-1019
▁없습니다	-1020
▁먼저	-1021
되지	-1022
▁이야기	-1023
ati	-1024
▁부산	-1025
▁있어서	-1026
▁작업	-1027
▁알고	-1028
▁관한	-1029
▁소비	-1030
▁않았	-1031
▁are	-1032
▁발표	-1033
시고	-1034
▁이루	-1035
!!	-1036
이었다	-1037
▁was	-1038
▁떨	-1039
▁키키	-1040
▁특별	-1041
▁거래	-1042
지가	-1043
▁한번	-1044
▁소개	-1045
----	-1046
▁몰	-1047
▁바랍니다	-1048
▁생활	-1049
▁인간	-1050
▁친구	-1051
하거나	-1052
▁방문	-1053
▁극	-1054
▁사항	-1055
.”	-1056
▁지속	-1057
도가	-1058
시기	-1059
▁2.	-1060
▁발전	-1061
▁혼	-1062
▁수준	-1063
▁믿	-1064
리아	-1065
▁호텔	-1066
치는	-1067
▁기존	-1068
점을	-1069
▁14	-1070
▁풍	-1071
기로	-1072
들도	-1073
하세요	-1074
per	-1075
▁뿐	-1076
▁자연	-1077
▁16	-1078
▁모르	-1079
위원회	-1080
▁중심	-1081
▁책임	-1082
▁이는	-1083
십시오	-1084
없이	-1085
▁하지	-1086
▁아래	-1087
▁능	-1088
▁이에	-1089
▁아직	-1090
▁페	-1091
▁변화	-1092
▁자체	-1093
도로	-1094
관리	-1095
▁것도	-1096
제를	-1097
▁추천	-1098
▁wh	-1099
▁역할	-1100
트를	-1101
▁캐	-1102
▁넣	-1103
▁읽	-1104
▁개선	-1105
▁연결	-1106
금을	-1107
▁기간	-1108
습니까	-1109
▁대학	-1110
▁분야	-1111
▁방식	-1112
21	-1113
▁기사	-1114
▁대부분	-1115
사지	-1116
위를	-1117
만원	-1118
▁코로나	-1119
▁의견	-1120
하도록	-1121
rom	-1122
▁신청	-1123
▁돼	-1124
,000	-1125
▁번째	-1126
ain	-1127
케이	-1128
and	-1129
수를	-1130
▁성장	-1131
▁주요	-1132
▁둘	-1133
▁역시	-1134
이가	-1135
▁온라인	-1136
마다	-1137
▁사람들이	-1138
전히	-1139
밖에	-1140
▁그냥	-1141
▁않을	-1142
인가	-1143
▁되고	-1144
▁당시	-1145
▁운동	-1146
▁피해	-1147
▁스타	-1148
▁놀	-1149
시장	-1150
물을	-1151
▁금융	-1152
▁13	-1153
▁풀	-1154
▁정치	-1155
▁따라서	-1156
▁공간	-1157
▁us	-1158
▁존재	-1159
▁국제	-1160
운데	-1161
▁자기	-1162
ers	-1163
▁보호	-1164
▁등이	-1165
디어	-1166
▁앞으로	-1167
▁따르면	-1168
드를	-1169
▁핵	-1170
▁노력	-1171
ect	-1172
▁사건	-1173
▁인터넷	-1174
▁50	-1175
인을	-1176
▁악	-1177
▁r	-1178
▁de	-1179
왔다	-1180
▁학교	-1181
까요	-1182
▁*	-1183
▁북한	-1184
ff	-1185
ps	-1186
▁후보	-1187
▁숙	-1188
음을	-1189
경제	-1190
ant	-1191
동안	-1192
▁않습니다	-1193
스크	-1194
com	-1195
에요	-1196
▁회사	-1197
지요	-1198
나는	-1199
도의	-1200
감을	-1201
▁밀	-1202
▁공개	-1203
50	-1204
▁제작	-1205
수가	-1206
est	-1207
▁탄	-1208
▁문제가	-1209
▁고려	-1210
보고	-1211
▁사이트	-1212
▁미래	-1213
었던	-1214
ell	-1215
ist	-1216
▁있지만	-1217
▁혹	-1218
▁이날	-1219
▁홈	-1220
▁=	-1221
▁도시	-1222
상이	-1223
ub	-1224
se	-1225
▁팀	-1226
▁하루	-1227
▁지난해	-1228
대를	-1229
▁예산	-1230
▁목표	-1231
▁ac	-1232
▁지방	-1233
pl	-1234
▁경쟁	-1235
▁그러면	-1236
▁떨어	-1237
▁▲	-1238
ine	-1239
▁컨	-1240
계를	-1241
거든	-1242
지역	-1243
께서	-1244
▁암	-1245
▁17	-1246
스로	-1247
und	-1248
▁있어요	-1249
▁현대	-1250
▁가능한	-1251
▁뜻	-1252
▁자유	-1253
정한	-1254
▁강화	-1255
▁표현	-1256
ㅋㅋ	-1257
부를	-1258
iz	-1259
정이	-1260
▁치료	-1261
나라	-1262
▁자세	-1263
▁결국	-1264
tt	-1265
▁경기	-1266
시설	-1267
려고	-1268
▁색	-1269
▁비교	-1270
▁or	-1271
▁작품	-1272
▁육	-1273
전에	-1274
▁희	-1275
▁일이	-1276
vel	-1277
▁해외	-1278
▁깨	-1279
텐츠	-1280
자로	-1281
▁때문이다	-1282
▁등록	-1283
-1	-1284
▁씨는	-1285
▁규모	-1286
지막	-1287
명이	-1288
▁판단	-1289
▁팔	-1290
사회	-1291
▁살아	-1292
르게	-1293
ew	-1294
▁웹	-1295
▁정보를	-1296
▁진짜	-1297
▁시민	-1298
문화	-1299
▁were	-1300
안을	-1301
▁디자인	-1302
상의	-1303
개월	-1304
▁품	-1305
▁울	-1306
▁전에	-1307
▁크게	-1308
서를	-1309
▁가운데	-1310
명을	-1311
▁항공	-1312
장에서	-1313
▁폐	-1314
산업	-1315
▁방송	-1316
지도	-1317
▁구조	-1318
▁확대	-1319
보험	-1320
했고	-1321
사이트	-1322
▁3.	-1323
▁느낌	-1324
▁노동	-1325
▁상당	-1326
▁스마트	-1327
▁어린	-1328
는데요	-1329
▁쉽게	-1330
▁비용	-1331
나요	-1332
▁조사	-1333
연구	-1334
▁정확	-1335
▁거의	-1336
▁24	-1337
▁변경	-1338
▁지적	-1339
ical	-1340
▁모델	-1341
▁이동	-1342
▁어디	-1343
▁전략	-1344
▁시간을	-1345
▁작은	-1346
▁따른	-1347
▁아주	-1348
▁인해	-1349
ort	-1350
▁작성	-1351
었고	-1352
▁조직	-1353
하지만	-1354
▁긴	-1355
▁꼭	-1356
▁누구	-1357
▁서로	-1358
스는	-1359
▁기반	-1360
▁개정	-1361
▁수행	-1362
▁질문	-1363
부는	-1364
orm	-1365
▁브랜드	-1366
▁마지막	-1367
▁위험	-1368
▁공동	-1369
▁시행	-1370
▁이게	-1371
▁올라	-1372
22	-1373
▁영향을	-1374
해주	-1375
▁보내	-1376
▁터	-1377
▁꿈	-1378
수는	-1379
년에	-1380
▁컴	-1381
ap	-1382
▁처리	-1383
▁J	-1384
거든요	-1385
지노	-1386
▁깊	-1387
▁ch	-1388
▁있기	-1389
▁전국	-1390
르는	-1391
일을	-1392
▁사고	-1393
▁~	-1394
는다	-1395
▁배우	-1396
▁검색	-1397
▁겁	-1398
로부터	-1399
▁있게	-1400
▁슬	-1401
억원	-1402
더라도	-1403
▁그의	-1404
▁발견	-1405
▁k	-1406
명의	-1407
자들이	-1408
▁한편	-1409
▁2020	-1410
▁25	-1411
▁착	-1412
로는	-1413
▁인정	-1414
ww	-1415
▁im	-1416
▁회원	-1417
▁지나	-1418
(1	-1419
이어	-1420
▁윤	-1421
하였다	-1422
▁탈	-1423
소를	-1424
하신	-1425
은행	-1426
으로써	-1427
▁comp	-1428
이를	-1429
장의	-1430
▁공급	-1431
보다는	-1432
▁집중	-1433
지에	-1434
▁충분	-1435
아서	-1436
▁일을	-1437
선을	-1438
스타	-1439
인은	-1440
di	-1441
▁황	-1442
렸다	-1443
▁거예요	-1444
▁예상	-1445
▁주장	-1446
워크	-1447
이기	-1448
▁때는	-1449
든지	-1450
▁송	-1451
기술	-1452
지원	-1453
▁왕	-1454
▁만큼	-1455
▁상대	-1456
▁압	-1457
▁적극	-1458
가능	-1459
▁헤	-1460
▁from	-1461
▁현실	-1462
▁빨	-1463
-0	-1464
▁규정	-1465
권을	-1466
▁대비	-1467
▁같습니다	-1468
▁만나	-1469
▁sh	-1470
▁뛰	-1471
으나	-1472
▁이루어	-1473
프트	-1474
▁강조	-1475
▁광고	-1476
▁삼성	-1477
스터	-1478
▁주변	-1479
ents	-1480
파트	-1481
▁제한	-1482
포츠	-1483
수의	-1484
▁형태	-1485
▁어렵	-1486
▁계약	-1487
ence	-1488
▁듯	-1489
한다는	-1490
▁궁	-1491
▁받고	-1492
▁우선	-1493
자와	-1494
▁수가	-1495
▁서비스를	-1496
▁실시	-1497
▁부담	-1498
▁민주	-1499
자에게	-1500
부가	-1501
ge	-1502
▁움	-1503
로서	-1504
▁솔	-1505
▁단계	-1506
▁엔	-1507
▁오후	-1508
▁봐	-1509
▁기억	-1510
▁행정	-1511
했다고	-1512
▁도움이	-1513
▁영상	-1514
▁자료	-1515
하는데	-1516
▁되면	-1517
▁시간이	-1518
기간	-1519
디오	-1520
▁등에	-1521
▁붙	-1522
▁혁	-1523
▁역사	-1524
▁가져	-1525
▁언제	-1526
러운	-1527
▁의원	-1528
▁경우에는	-1529
▁주민	-1530
전을	-1531
▁나라	-1532
duc	-1533
▁부족	-1534
ign	-1535
이드	-1536
성과	-1537
동을	-1538
are	-1539
ase	-1540
▁40	-1541
▁이것은	-1542
로벌	-1543
▁보다	-1544
▁확보	-1545
▁21	-1546
서비스	-1547
▁요청	-1548
▁경영	-1549
가를	-1550
▁참고	-1551
과의	-1552
▁설정	-1553
▁y	-1554
환경	-1555
▁꾸	-1556
인다	-1557
//	-1558
안마	-1559
▁의료	-1560
▁수익	-1561
너지	-1562
▁익	-1563
개발	-1564
리지	-1565
▁업체	-1566
ak	-1567
머니	-1568
▁의해	-1569
▁공유	-1570
.5	-1571
▁행복	-1572
▁듣	-1573
▁주문	-1574
느냐	-1575
▁방향	-1576
▁검토	-1577
▁경찰	-1578
▁예약	-1579
▁가입	-1580
▁스트	-1581
는지	-1582
up	-1583
▁오는	-1584
▁객	-1585
▁시대	-1586
▁특징	-1587
드립니다	-1588
▁음악	-1589
▁받은	-1590
어야	-1591
▁고민	-1592
대한	-1593
▁at	-1594
났다	-1595
ph	-1596
어를	-1597
되었다	-1598
▁라이	-1599
ug	-1600
tr	-1601
▁장애	-1602
▁그녀	-1603
적이	-1604
진다	-1605
ial	-1606
▁비롯	-1607
니스	-1608
▁출시	-1609
업체	-1610
▁그것은	-1611
▁상승	-1612
▁갑	-1613
▁아니다	-1614
▁음식	-1615
▁맡	-1616
드리	-1617
만큼	-1618
가가	-1619
장에	-1620
our	-1621
▁만든	-1622
▁보험	-1623
▁년	-1624
▁주는	-1625
▁구축	-1626
▁살펴	-1627
fer	-1628
▁들어가	-1629
기의	-1630
▁Th	-1631
▁움직	-1632
한다고	-1633
▁관광	-1634
▁내려	-1635
▁선정	-1636
te	-1637
▁자동차	-1638
개의	-1639
▁사용할	-1640
ies	-1641
▁앱	-1642
▁en	-1643
회가	-1644
단체	-1645
▁it	-1646
▁왔	-1647
▁그럼	-1648
ib	-1649
▁안정	-1650
하다고	-1651
://	-1652
하실	-1653
▁각각	-1654
▁뉴	-1655
▁we	-1656
부의	-1657
해보	-1658
▁se	-1659
▁말이	-1660
ations	-1661
▁제대로	-1662
."	-1663
스럽	-1664
▁**	-1665
▁항상	-1666
▁전망	-1667
리의	-1668
▁하겠습니다	-1669
스가	-1670
어도	-1671
국의	-1672
ans	-1673
▁바이	-1674
age	-1675
어가	-1676
ress	-1677
사항	-1678
▁le	-1679
ia	-1680
▁stud	-1681
▁역할을	-1682
▁흐	-1683
에서의	-1684
▁개최	-1685
▁필요가	-1686
▁플레이	-1687
▁가치	-1688
▁겁니다	-1689
▁게시	-1690
▁신고	-1691
▁199	-1692
▁아닙	-1693
▁가진	-1694
생활	-1695
▁오래	-1696
▁얼마나	-1697
▁제시	-1698
들에	-1699
님의	-1700
▁전달	-1701
▁2018	-1702
▁티	-1703
▁감독	-1704
▁지급	-1705
겠다는	-1706
부에	-1707
▁콘텐츠	-1708
▁예를	-1709
동산	-1710
님이	-1711
▁보는	-1712
년도	-1713
스의	-1714
▁다만	-1715
▁우리의	-1716
▁싶은	-1717
▁갖고	-1718
▁정신	-1719
▁직원	-1720
▁문제를	-1721
▁대응	-1722
▁대해서는	-1723
▁사례	-1724
▁this	-1725
▁전자	-1726
▁sp	-1727
▁잔	-1728
▁사람은	-1729
▁숨	-1730
▁과거	-1731
▁않았다	-1732
점이	-1733
▁자리	-1734
▁제주	-1735
▁2014	-1736
았습니다	-1737
......	-1738
ous	-1739
act	-1740
▁나온	-1741
▁글로벌	-1742
▁유명	-1743
▁일단	-1744
▁흔	-1745
물이	-1746
▁받을	-1747
▁안내	-1748
▁,	-1749
▁봉	-1750
▁그대로	-1751
▁말을	-1752
23	-1753
▁제조	-1754
▁견	-1755
▁기관	-1756
▁퍼	-1757
▁시험	-1758
▁찍	-1759
▁외국	-1760
▁법률	-1761
▁분위	-1762
▁can	-1763
▁얘기	-1764
▁답변	-1765
▁ad	-1766
able	-1767
▁전문가	-1768
▁이전	-1769
▁싸	-1770
▁녹	-1771
11	-1772
사와	-1773
▁도입	-1774
ill	-1775
제가	-1776
ich	-1777
▁격	-1778
▁쉬	-1779
제로	-1780
도는	-1781
▁프로젝	-1782
잖아요	-1783
▁액	-1784
되었	-1785
퓨터	-1786
▁욕	-1787
==	-1788
▁단순	-1789
▁그림	-1790
▁핵심	-1791
한국	-1792
▁co	-1793
▁최소	-1794
▁가까	-1795
원에	-1796
▁차량	-1797
이크	-1798
▁정상	-1799
ance	-1800
▁퇴	-1801
▁생각을	-1802
▁공공	-1803
▁건설	-1804
▁inc	-1805
업을	-1806
▁기타	-1807
함을	-1808
▁그러니까	-1809
▁...	-1810
인트	-1811
롭게	-1812
▁상담	-1813
▁않아	-1814
어난	-1815
▁아마	-1816
임을	-1817
▁나와	-1818
▁겨	-1819
ear	-1820
▁중앙	-1821
▁쪽	-1822
▁정도로	-1823
form	-1824
▁감소	-1825
▁통합	-1826
드시	-1827
랫폼	-1828
사에	-1829
비를	-1830
오는	-1831
▁Q	-1832
▁정리	-1833
션을	-1834
▁되었다	-1835
▁부모	-1836
▁22	-1837
▁2017	-1838
▁스스로	-1839
▁선거	-1840
▁러	-1841
▁동시에	-1842
▁만족	-1843
▁내용을	-1844
▁힘들	-1845
ip	-1846
▁아파트	-1847
▁석	-1848
으로서	-1849
▁했습니다	-1850
▁예수	-1851
ys	-1852
▁쇼	-1853
▁있음	-1854
성에	-1855
움을	-1856
소년	-1857
내는	-1858
▁아름	-1859
복지	-1860
지털	-1861
ind	-1862
▁대상으로	-1863
▁나가	-1864
▁과학	-1865
시켜	-1866
^^	-1867
▁끌	-1868
▁실제로	-1869
▁같다	-1870
르고	-1871
▁엄청	-1872
일부터	-1873
▁요즘	-1874
▁해도	-1875
▁간단	-1876
▁23	-1877
▁평균	-1878
▁이벤	-1879
▁됐	-1880
▁이야기를	-1881
▁만드는	-1882
▁얼굴	-1883
만의	-1884
▁하는데	-1885
tive	-1886
tions	-1887
▁대신	-1888
all	-1889
대표	-1890
으로는	-1891
보는	-1892
다음	-1893
고요	-1894
구를	-1895
▁하여	-1896
vi	-1897
되며	-1898
로드	-1899
▁않는다	-1900
계획	-1901
▁밤	-1902
▁중에	-1903
▁저작	-1904
자들은	-1905
▁2019	-1906
▁느끼	-1907
▁잘못	-1908
▁하기	-1909
일에	-1910
정책	-1911
▁위해서는	-1912
▁하며	-1913
번호	-1914
굉장	-1915
▁쿠	-1916
ens	-1917
lec	-1918
상에	-1919
▁cont	-1920
중에	-1921
▁주식	-1922
바일	-1923
▁돈을	-1924
▁바람	-1925
ave	-1926
▁생각이	-1927
로그	-1928
▁반영	-1929
▁루	-1930
거리	-1931
▁워	-1932
지지	-1933
▁굉장	-1934
▁4.	-1935
▁조건	-1936
▁△	-1937
이란	-1938
▁팬	-1939
▁우려	-1940
▁혈	-1941
▁pre	-1942
▁근데	-1943
▁효율	-1944
보기	-1945
한테	-1946
▁사용하는	-1947
러스	-1948
▁아침	-1949
지의	-1950
▁다운	-1951
▁촉	-1952
▁주택	-1953
▁공격	-1954
거래	-1955
ue	-1956
▁표시	-1957
촬영	-1958
▁는	-1959
▁특정	-1960
▁he	-1961
했을	-1962
▁per	-1963
24	-1964
▁앞서	-1965
원에서	-1966
▁예정이다	-1967
▁이상의	-1968
하다는	-1969
▁되지	-1970
▁바라	-1971
▁체크	-1972
ight	-1973
▁우리나라	-1974
ard	-1975
▁어려운	-1976
▁을	-1977
대의	-1978
▁모습을	-1979
▁–	-1980
▁컴퓨터	-1981
▁망	-1982
▁경우가	-1983
▁가는	-1984
▁활성	-1985
▁매출	-1986
▁기다	-1987
▁이거	-1988
▁멀	-1989
▁반드시	-1990
▁사회적	-1991
▁제출	-1992
▁전기	-1993
80	-1994
▁전화	-1995
관계	-1996
일까지	-1997
자들의	-1998
▁한다는	-1999
라우	-2000
▁드러	-2001
▁플랫폼	-2002
▁혁신	-2003
▁순간	-2004
▁캠	-2005
▁담당	-2006
이면	-2007
▁행동	-2008
▁혹은	-2009
▁같아요	-2010
바이	-2011
12	-2012
▁사람들은	-2013
▁공식	-2014
▁전환	-2015
하자	-2016
▁좌	-2017
▁지정	-2018
▁펼	-2019
▁제외	-2020
이지만	-2021
▁반응	-2022
▁선수	-2023
었는데	-2024
▁편의	-2025
▁빌	-2026
▁방법을	-2027
▁자주	-2028
▁파악	-2029
▁목적	-2030
줍니다	-2031
서울	-2032
▁굉장히	-2033
▁받는	-2034
케팅	-2035
되었습니다	-2036
▁재미	-2037
겠지만	-2038
▁동일	-2039
▁형성	-2040
60	-2041
▁유럽	-2042
▁겪	-2043
▁대출	-2044
년간	-2045
▁참석	-2046
▁출장	-2047
▁납	-2048
▁비슷	-2049
▁분명	-2050
▁최초	-2051
위에	-2052
▁땅	-2053
▁실행	-2054
▁염	-2055
▁문의	-2056
▁2016	-2057
▁설계	-2058
▁영업	-2059
▁빈	-2060
금이	-2061
▁매일	-2062
세를	-2063
▁없어	-2064
히려	-2065
▁컬	-2066
▁봤	-2067
웨어	-2068
25	-2069
▁결제	-2070
ong	-2071
.3	-2072
▁예방	-2073
end	-2074
ary	-2075
▁달라	-2076
▁최고의	-2077
▁성과	-2078
대학	-2079
▁사무	-2080
▁섬	-2081
▁전혀	-2082
▁par	-2083
되면	-2084
관이	-2085
▁접근	-2086
▁인식	-2087
▁꽃	-2088
▁가정	-2089
해요	-2090
▁부동산	-2091
%)	-2092
▁보유	-2093
▁원하는	-2094
▁tr	-2095
▁not	-2096
▁열린	-2097
▁전통	-2098
▁맥	-2099
▁써	-2100
▁mod	-2101
lo	-2102
▁파일	-2103
▁>	-2104
▁통한	-2105
회는	-2106
시키는	-2107
▁구체	-2108
▁것에	-2109
▁제공하는	-2110
라마	-2111
ach	-2112
ass	-2113
▁냉	-2114
▁신뢰	-2115
스토	-2116
▁흥	-2117
훈련	-2118
▁벗	-2119
▁스포츠	-2120
▁60	-2121
▁자신이	-2122
ost	-2123
▁그때	-2124
▁죄	-2125
수록	-2126
▁습	-2127
▁논의	-2128
▁각종	-2129
▁개념	-2130
▁dis	-2131
였습니다	-2132
▁넘어	-2133
자료	-2134
▁웃	-2135
▁있지	-2136
▁디지털	-2137
▁두고	-2138
▁기획	-2139
40	-2140
▁홈페이지	-2141
으니	-2142
▁오히려	-2143
▁등으로	-2144
▁마치	-2145
▁입니다	-2146
▁카지노	-2147
▁행사	-2148
▁위원님	-2149
▁연락	-2150
so	-2151
분이	-2152
이라며	-2153
량을	-2154
200	-2155
▁htt	-2156
▁그것을	-2157
▁구입	-2158
▁어린이	-2159
▁금액	-2160
문을	-2161
yst	-2162
프로	-2163
▁헌	-2164
▁「	-2165
co	-2166
▁의사	-2167
▁가능성이	-2168
▁전시	-2169
▁27	-2170
▁교통	-2171
▁정의	-2172
▁다음과	-2173
▁모바일	-2174
ack	-2175
데이트	-2176
▁괜	-2177
▁하나의	-2178
▁결혼	-2179
▁걱	-2180
▁안에	-2181
▁오전	-2182
▁언론	-2183
주고	-2184
▁기능을	-2185
▁주차	-2186
▁관계자는	-2187
▁차지	-2188
이자	-2189
▁홍보	-2190
▁관련된	-2191
했지만	-2192
▁지지	-2193
▁딱	-2194
▁app	-2195
마사지	-2196
▁예술	-2197
▁달러	-2198
▁넓	-2199
▁대하여	-2200
▁통해서	-2201
▁뉴스	-2202
▁있다면	-2203
하시는	-2204
자에	-2205
요일	-2206
▁인증	-2207
려면	-2208
신문	-2209
▁칼	-2210
▁나누	-2211
)||	-2212
▁국회	-2213
하십시오	-2214
대에	-2215
▁클릭	-2216
하시	-2217
▁달리	-2218
주택	-2219
--------	-2220
▁위하여	-2221
▁X	-2222
ork	-2223
▁조성	-2224
▁제거	-2225
▁which	-2226
▁빼	-2227
▁혜	-2228
트워크	-2229
▁개인정보	-2230
▁못한	-2231
▁탐	-2232
▁불법	-2233
▁인천	-2234
▁2012	-2235
▁이하	-2236
▁인한	-2237
구하고	-2238
▁등장	-2239
▁훨	-2240
셔서	-2241
▁보인다	-2242
▁소재	-2243
▁협력	-2244
▁검찰	-2245
▁+	-2246
라면	-2247
▁덕	-2248
▁측면	-2249
bo	-2250
▁TV	-2251
도시	-2252
물의	-2253
적이고	-2254
▁케	-2255
erv	-2256
▁것처럼	-2257
다운	-2258
▁지도	-2259
▁촬영	-2260
▁종류	-2261
▁여기에	-2262
▁곧	-2263
▁무슨	-2264
으로부터	-2265
▁만약	-2266
)’	-2267
▁입력	-2268
스러운	-2269
etw	-2270
장님	-2271
▁징	-2272
▁배송	-2273
▁약간	-2274
경을	-2275
▁레이	-2276
와의	-2277
▁여전히	-2278
▁아버	-2279
▁안녕	-2280
지로	-2281
▁참가	-2282
▁일정	-2283
▁그다음	-2284
15	-2285
▁그게	-2286
▁훨씬	-2287
대가	-2288
찬가지	-2289
ide	-2290
▁과정에서	-2291
▁체험	-2292
▁교수	-2293
▁강력	-2294
하던	-2295
▁됐다	-2296
▁카드	-2297
▁하나님의	-2298
▁공부	-2299
관을	-2300
대출	-2301
▁26	-2302
방법	-2303
▁궁금	-2304
▁프로젝트	-2305
▁최종	-2306
ang	-2307
같은	-2308
▁마찬가지	-2309
이션	-2310
▁은행	-2311
▁제안	-2312
▁낙	-2313
회사	-2314
겠다고	-2315
▁저작권	-2316
▁빛	-2317
▁종합	-2318
운동	-2319
▁cl	-2320
▁건축	-2321
eth	-2322
▁바탕	-2323
아가	-2324
ific	-2325
▁영역	-2326
▁이벤트	-2327
▁생각합니다	-2328
▁나서	-2329
레스	-2330
▁대한민	-2331
▁28	-2332
▁하면서	-2333
년부터	-2334
▁장소	-2335
차를	-2336
▁금지	-2337
▁설립	-2338
대학교	-2339
리카	-2340
감이	-2341
▁imp	-2342
▁우수	-2343
댓글	-2344
ok	-2345
iv	-2346
▁화면	-2347
하기도	-2348
없는	-2349
전자	-2350
▁맞는	-2351
품을	-2352
▁감염	-2353
▁니	-2354
▁이곳	-2355
▁것이라고	-2356
▁있었습니다	-2357
화된	-2358
▁사망	-2359
라운	-2360
보면	-2361
▁주고	-2362
▁도착	-2363
▁쌓	-2364
▁이유는	-2365
▁입장	-2366
▁시청	-2367
▁보통	-2368
▁공연	-2369
ther	-2370
▁조선	-2371
▁기초	-2372
▁없었다	-2373
▁그룹	-2374
▁노래	-2375
도에	-2376
▁보장	-2377
enti	-2378
▁잃	-2379
▁되었	-2380
▁푸	-2381
▁주로	-2382
▁대구	-2383
그룹	-2384
▁당연	-2385
▁내부	-2386
▁이와	-2387
▁프리	-2388
▁인사	-2389
성은	-2390
학생	-2391
▁회의	-2392
▁없을	-2393
▁전쟁	-2394
▁고용	-2395
enc	-2396
▁청년	-2397
▁피부	-2398
하셨	-2399
▁학습	-2400
▁수정	-2401
ex	-2402
▁장기	-2403
▁확실	-2404
70	-2405
하고자	-2406
▁부탁	-2407
▁끊	-2408
▁마음을	-2409
▁인생	-2410
▁있던	-2411
1)	-2412
▁아닙니다	-2413
해도	-2414
▁옵	-2415
산을	-2416
▁혐	-2417
정부	-2418
별로	-2419
olog	-2420
▁속에서	-2421
심을	-2422
▁뜨	-2423
▁단체	-2424
▁영국	-2425
안전	-2426
치가	-2427
▁최신	-2428
통신	-2429
ep	-2430
’,	-2431
규모	-2432
함으로써	-2433
▁가능합니다	-2434
▁반대	-2435
관은	-2436
▁dif	-2437
▁저장	-2438
▁have	-2439
갔다	-2440
▁없고	-2441
ast	-2442
ory	-2443
단을	-2444
ire	-2445
구요	-2446
▁비해	-2447
▁하게	-2448
▁비즈	-2449
▁보니	-2450
일이	-2451
냈다	-2452
▁스마트폰	-2453
▁마케팅	-2454
기와	-2455
▁삭	-2456
무원	-2457
▁찬	-2458
ata	-2459
▁대체	-2460
게요	-2461
세계	-2462
▁보기	-2463
▁inter	-2464
▁현장	-2465
▁요소	-2466
▁여기서	-2467
▁결과를	-2468
▁주의	-2469
▁그들은	-2470
▁뭔	-2471
▁Y	-2472
더라	-2473
투자	-2474
▁높아	-2475
▁엄마	-2476
▁그리	-2477
게임	-2478
▁술	-2479
▁개정안	-2480
집니다	-2481
드로	-2482
▁1,	-2483
▁괜찮	-2484
▁있으면	-2485
▁오른	-2486
ors	-2487
분을	-2488
18	-2489
▁희망	-2490
했는데	-2491
▁커피	-2492
▁묻	-2493
▁수입	-2494
한다면	-2495
▁신규	-2496
리즈	-2497
low	-2498
씨는	-2499
▁수요	-2500
▁있는지	-2501
▁빠르게	-2502
▁시즌	-2503
▁자격	-2504
▁수출	-2505
▁댓글	-2506
▁완벽	-2507
▁중심으로	-2508
구의	-2509
▁그리스	-2510
▁졸	-2511
▁옆	-2512
▁복잡	-2513
▁pl	-2514
자리	-2515
▁앉	-2516
▁eff	-2517
▁선보	-2518
▁부정	-2519
▁완료	-2520
▁객실	-2521
▁수는	-2522
▁의무	-2523
▁페이지	-2524
▁반면	-2525
yp	-2526
▁뇌	-2527
▁에너지	-2528
▁똑	-2529
▁관심을	-2530
심히	-2531
ted	-2532
▁근로	-2533
▁상당히	-2534
자기	-2535
식이	-2536
▁2015	-2537
불어	-2538
.4	-2539
구가	-2540
▁비판	-2541
▁애플	-2542
달러	-2543
▁제품을	-2544
▁제일	-2545
▁되었습니다	-2546
▁이내	-2547
ased	-2548
활동	-2549
▁신용	-2550
▁일어나	-2551
▁한다고	-2552
one	-2553
▁완성	-2554
▁여름	-2555
▁택	-2556
▁경기도	-2557
▁주시기	-2558
▁St	-2559
하려는	-2560
▁조정	-2561
▁아니고	-2562
▁29	-2563
▁사실을	-2564
▁중소	-2565
▁보이는	-2566
▁멋	-2567
▁불구하고	-2568
13	-2569
▁그동안	-2570
화가	-2571
▁그래도	-2572
▁모양	-2573
법을	-2574
▁콜	-2575
▁완전히	-2576
▁제기	-2577
린다	-2578
▁억	-2579
▁느껴	-2580
ace	-2581
▁이뤄	-2582
증을	-2583
만을	-2584
▁자녀	-2585
▁근거	-2586
▁부분이	-2587
많은	-2588
ord	-2589
▁언급	-2590
▁주목	-2591
▁마을	-2592
조건	-2593
▁사업을	-2594
금융	-2595
민주	-2596
▁점을	-2597
ual	-2598
시험	-2599
량이	-2600
▁지금까지	-2601
▁저렴	-2602
▁충분히	-2603
▁숙박	-2604
▁그가	-2605
▁뿌	-2606
약을	-2607
▁선생	-2608
▁슈	-2609
▁젊	-2610
▁드리	-2611
▁미리	-2612
조사	-2613
%,	-2614
하나	-2615
이라면	-2616
▁있어야	-2617
▁인도	-2618
상은	-2619
로를	-2620
▁좋습니다	-2621
▁다르	-2622
▁회복	-2623
ll	-2624
ech	-2625
▁불편	-2626
▁소프트	-2627
뮤니	-2628
▁말씀을	-2629
▁문제는	-2630
▁독립	-2631
▁보안	-2632
▁네트워크	-2633
▁빨리	-2634
▁사람을	-2635
이버	-2636
▁만에	-2637
과는	-2638
▁i	-2639
▁여자	-2640
▁제공합니다	-2641
리로	-2642
ystem	-2643
▁민간	-2644
▁영어	-2645
▁사는	-2646
등학교	-2647
뿐만	-2648
▁ob	-2649
▁동의	-2650
카드	-2651
cess	-2652
▁아니면	-2653
▁할인	-2654
▁못하고	-2655
16	-2656
▁사람의	-2657
소득	-2658
라며	-2659
이에요	-2660
우는	-2661
:00	-2662
▁틀	-2663
▁히	-2664
▁혜택	-2665
▁70	-2666
▁나오는	-2667
체를	-2668
▁흘	-2669
14	-2670
▁메뉴	-2671
▁스토	-2672
▁짧	-2673
ari	-2674
장과	-2675
가의	-2676
▁적절	-2677
아야	-2678
▁않다	-2679
▁지켜	-2680
▁me	-2681
▁사라	-2682
하기로	-2683
하겠습니다	-2684
거운	-2685
가요	-2686
▁메시	-2687
ou	-2688
.9	-2689
했다는	-2690
▁나무	-2691
ater	-2692
▁쓸	-2693
▁나의	-2694
▁폴	-2695
세대	-2696
개를	-2697
이었	-2698
▁gro	-2699
▁받았	-2700
당한	-2701
▁옷	-2702
▁반복	-2703
erm	-2704
▁대중	-2705
▁출발	-2706
▁더불어	-2707
회에	-2708
▁채널	-2709
구나	-2710
링크	-2711
▁정부가	-2712
▁감사합니다	-2713
ail	-2714
.7	-2715
▁업데이트	-2716
tiv	-2717
스럽게	-2718
.6	-2719
더라고	-2720
▁외부	-2721
▁하다	-2722
학과	-2723
▁바탕으로	-2724
▁성능	-2725
▁소유	-2726
▁전했다	-2727
했으며	-2728
▁실패	-2729
아이	-2730
▁근무	-2731
▁소득	-2732
년대	-2733
ice	-2734
▁수밖에	-2735
▁끼	-2736
▁gen	-2737
튜브	-2738
제는	-2739
▁PC	-2740
상품	-2741
▁대한민국	-2742
BS	-2743
▁원래	-2744
▁사용하여	-2745
ㅠㅠ	-2746
▁int	-2747
▁목소	-2748
▁이익	-2749
ren	-2750
▁활동을	-2751
▁ass	-2752
위가	-2753
주세요	-2754
질을	-2755
▁필수	-2756
원으로	-2757
▁열심히	-2758
▁수술	-2759
.8	-2760
같이	-2761
▁검사	-2762
▁통신	-2763
▁하락	-2764
하겠다	-2765
▁인공	-2766
▁인기	-2767
단계	-2768
정에	-2769
▁유형	-2770
▁기념	-2771
려는	-2772
▁의견을	-2773
▁혼자	-2774
ult	-2775
릭터	-2776
▁위반	-2777
▁를	-2778
메라	-2779
하시면	-2780
▁위에	-2781
우스	-2782
▁힘을	-2783
▁보이	-2784
체의	-2785
인과	-2786
▁했는데	-2787
더니	-2788
].	-2789
▁약속	-2790
성의	-2791
hen	-2792
▁먹고	-2793
▁high	-2794
▁남자	-2795
▁계획이다	-2796
▁창업	-2797
▁&	-2798
▁센터	-2799
▁예측	-2800
~~	-2801
▁개의	-2802
셔야	-2803
보호	-2804
▁절대	-2805
▁드라마	-2806
▁것과	-2807
▁수집	-2808
▁study	-2809
▁사전	-2810
▁이사	-2811
있다	-2812
플레이	-2813
▁자본	-2814
▁보도	-2815
▁소통	-2816
제품	-2817
▁show	-2818
▁활성화	-2819
▁향상	-2820
분에	-2821
▁80	-2822
▁qu	-2823
▁청소년	-2824
▁원칙	-2825
▁특별한	-2826
기고	-2827
▁이끌	-2828
▁설명했다	-2829
▁생성	-2830
▁대형	-2831
▁주말	-2832
▁삶을	-2833
회에서	-2834
▁비즈니스	-2835
▁광주	-2836
▁differ	-2837
▁출연	-2838
▁탑	-2839
▁시절	-2840
▁사람들	-2841
▁걱정	-2842
tim	-2843
연합	-2844
▁부분에	-2845
실을	-2846
17	-2847
비가	-2848
▁옮	-2849
▁마사지	-2850
▁불가능	-2851
어들	-2852
만이	-2853
▁수상	-2854
겠죠	-2855
▁값	-2856
▁확장	-2857
▁un	-2858
▁아시아	-2859
▁ne	-2860
▁cell	-2861
▁제도	-2862
▁부분은	-2863
정의	-2864
2)	-2865
▁신경	-2866
번째	-2867
▁때문입니다	-2868
율이	-2869
어진	-2870
▁바꾸	-2871
▁비밀	-2872
▁심각	-2873
리와	-2874
▁기술을	-2875
▁프랑	-2876
▁흡	-2877
▁딸	-2878
▁·	-2879
▁않으면	-2880
▁전반	-2881
av	-2882
▁도와	-2883
▁저녁	-2884
▁향후	-2885
▁긍	-2886
▁has	-2887
두고	-2888
▁방식으로	-2889
▁러시아	-2890
고를	-2891
▁경우에	-2892
▁We	-2893
▁통과	-2894
이라도	-2895
▁늦	-2896
▁불안	-2897
점에서	-2898
▁엘	-2899
▁곡	-2900
▁테스트	-2901
(3	-2902
내용	-2903
▁캐릭터	-2904
▁분들이	-2905
▁마무	-2906
▁겨울	-2907
▁셀	-2908
▁말고	-2909
이에	-2910
치고	-2911
▁오늘은	-2912
▁아까	-2913
▁케이	-2914
▁첨	-2915
▁조합	-2916
▁소속	-2917
▁성격	-2918
시스템	-2919
▁Ch	-2920
:**	-2921
적을	-2922
▁적이	-2923
전문	-2924
▁앞에	-2925
▁미국의	-2926
▁카페	-2927
▁도움을	-2928
▁중인	-2929
▁해석	-2930
▁맞아	-2931
▁계산	-2932
▁오픈	-2933
NS	-2934
▁균	-2935
▁오랜	-2936
▁화장	-2937
▁후에	-2938
▁그들의	-2939
art	-2940
▁본격	-2941
▁그다음에	-2942
▁sc	-2943
-2	-2944
▁의한	-2945
▁도전	-2946
▁거쳐	-2947
▁sign	-2948
ative	-2949
으로도	-2950
으면서	-2951
ree	-2952
▁없다는	-2953
▁pati	-2954
▁낮은	-2955
군요	-2956
▁논란	-2957
▁블로그	-2958
▁(0	-2959
ugh	-2960
하였습니다	-2961
▁중에서	-2962
▁일으	-2963
▁독일	-2964
▁anal	-2965
▁밑	-2966
▁중단	-2967
시다	-2968
▁커뮤니	-2969
▁못하는	-2970
리기	-2971
▁쇼핑	-2972
▁빠른	-2973
행을	-2974
정은	-2975
위는	-2976
▁확산	-2977
ft	-2978
▁합의	-2979
▁교환	-2980
▁능력	-2981
▁내용은	-2982
▁과정을	-2983
사진	-2984
▁대부분의	-2985
▁사용자	-2986
▁꾸준	-2987
▁다니	-2988
카오	-2989
사로	-2990
이너	-2991
시킬	-2992
▁봄	-2993
▁선물	-2994
ath	-2995
-3	-2996
▁토론	-2997
▁업계	-2998
지와	-2999
▁나를	-3000
▁깔	-3001
ose	-3002
▁맞춰	-3003
점은	-3004
영상	-3005
▁홀	-3006
▁An	-3007
▁하늘	-3008
▁보니까	-3009
str	-3010
▁시도	-3011
위로	-3012
▁거기	-3013
rib	-3014
▁기계	-3015
▁부분을	-3016
▁많다	-3017
▁중간	-3018
단의	-3019
▁밥	-3020
평가	-3021
▁trans	-3022
▁가서	-3023
나무	-3024
▁훈련	-3025
ond	-3026
▁남아	-3027
▁명의	-3028
▁2021	-3029
▁질병	-3030
oth	-3031
▁ev	-3032
드가	-3033
금은	-3034
건을	-3035
기준	-3036
ile	-3037
.)	-3038
▁LG	-3039
▁남편	-3040
▁가득	-3041
출장안마	-3042
▁동물	-3043
▁경험을	-3044
▁차이가	-3045
▁당신이	-3046
리한	-3047
ome	-3048
▁다운로드	-3049
▁나왔	-3050
▁편안	-3051
▁걷	-3052
▁안녕하세요	-3053
▁정부의	-3054
▁지식	-3055
▁지키	-3056
▁이것이	-3057
▁측정	-3058
▁cons	-3059
▁출신	-3060
▁체결	-3061
pt	-3062
▁일상	-3063
ber	-3064
▁확인할	-3065
▁2013	-3066
ST	-3067
▁밖	-3068
데요	-3069
▁지하	-3070
스코	-3071
교통	-3072
해진	-3073
리어	-3074
▁가르	-3075
▁바뀌	-3076
▁공정	-3077
▁수많은	-3078
www	-3079
되면서	-3080
▁젊은	-3081
장으로	-3082
ied	-3083
▁경우는	-3084
▁시각	-3085
▁주인	-3086
▁취소	-3087
듯이	-3088
가격	-3089
▁있었던	-3090
가고	-3091
▁서버	-3092
과학	-3093
봅니다	-3094
▁exp	-3095
▁불가	-3096
니아	-3097
ility	-3098
▁기준으로	-3099
▁실험	-3100
▁바다	-3101
▁대책	-3102
▁이용해	-3103
▁컬러	-3104
▁언어	-3105
▁좋다	-3106
▁세상	-3107
▁그것이	-3108
500	-3109
▁주세요	-3110
ite	-3111
▁상호	-3112
een	-3113
▁유통	-3114
롯데	-3115
▁기회를	-3116
ㅎㅎ	-3117
▁기여	-3118
▁짜	-3119
▁초기	-3120
체가	-3121
▁리더	-3122
▁범죄	-3123
그래	-3124
▁글을	-3125
▁즐길	-3126
ular	-3127
▁받았다	-3128
하라	-3129
▁덧	-3130
▁까	-3131
▁삶의	-3132
자치	-3133
▁부과	-3134
방송	-3135
▁지금은	-3136
만한	-3137
▁아동	-3138
내고	-3139
▁건물	-3140
▁저희가	-3141
인데요	-3142
▁재정	-3143
▁블랙	-3144
▁데이터를	-3145
▁뒷	-3146
ates	-3147
▁ph	-3148
▁차별	-3149
▁프로그램을	-3150
제의	-3151
▁챙	-3152
노동	-3153
월에	-3154
▁rep	-3155
▁실시간	-3156
ple	-3157
▁가슴	-3158
▁부여	-3159
ark	-3160
안에	-3161
▁긍정	-3162
▁좋아하는	-3163
▁This	-3164
▁재판	-3165
▁속에	-3166
▁허용	-3167
▁센	-3168
▁변호	-3169
▁대화	-3170
▁위치한	-3171
ally	-3172
대는	-3173
▁필요하다	-3174
▁배치	-3175
▁타이	-3176
▁근처	-3177
이야	-3178
??	-3179
출장샵	-3180
▁싱	-3181
받는	-3182
▁31	-3183
▁먹는	-3184
▁대로	-3185
ime	-3186
▁일반적으로	-3187
▁상황에서	-3188
▁전용	-3189
에게는	-3190
리적	-3191
자동	-3192
케이션	-3193
▁취업	-3194
km	-3195
▁아프	-3196
진이	-3197
▁현지	-3198
마는	-3199
▁휴대	-3200
률이	-3201
▁강남	-3202
▁벤	-3203
▁배경	-3204
lic	-3205
▁구글	-3206
되기	-3207
▁ro	-3208
iti	-3209
사고	-3210
▁조절	-3211
▁던	-3212
▁올려	-3213
▁많아	-3214
▁카메라	-3215
▁보건	-3216
선거	-3217
▁정부는	-3218
신을	-3219
▁타고	-3220
▁스타일	-3221
▁샤	-3222
▁이번에	-3223
▁달성	-3224
▁해주	-3225
▁상황을	-3226
▁rel	-3227
▁잊	-3228
▁)	-3229
▁수용	-3230
▁당신의	-3231
▁운전	-3232
▁사이에	-3233
▁따뜻	-3234
보니	-3235
▁점점	-3236
▁model	-3237
역을	-3238
▁하이	-3239
▁도로	-3240
▁눈에	-3241
항에	-3242
주를	-3243
▁진출	-3244
받은	-3245
▁평소	-3246
▁꺼	-3247
▁고통	-3248
ust	-3249
콜걸	-3250
▁주소	-3251
▁벽	-3252
준다	-3253
▁전부	-3254
▁관심이	-3255
▁500	-3256
etween	-3257
드의	-3258
인들이	-3259
▁버튼	-3260
ound	-3261
▁저도	-3262
▁최적	-3263
지면	-3264
더라고요	-3265
▁유튜브	-3266
▁거리	-3267
▁완전	-3268
.(	-3269
하려면	-3270
▁뿐만	-3271
▁강조했다	-3272
▁결합	-3273
▁마음이	-3274
▁새로	-3275
ive	-3276
▁시리즈	-3277
▁자신을	-3278
▁맺	-3279
▁대전	-3280
▁아이디어	-3281
▁체계	-3282
트로	-3283
▁품질	-3284
ethod	-3285
▁나머	-3286
공사	-3287
▁졸업	-3288
▁미디어	-3289
▁국민의	-3290
림픽	-3291
우리	-3292
▁90	-3293
덤프	-3294
까지는	-3295
시가	-3296
▁방법은	-3297
mm	-3298
▁찾는	-3299
▁매년	-3300
▁단지	-3301
▁이것을	-3302
▁괴	-3303
uld	-3304
트는	-3305
▁효과를	-3306
▁아름다운	-3307
▁누가	-3308
▁되는데	-3309
▁놓고	-3310
▁이론	-3311
지게	-3312
▁편집	-3313
▁비슷한	-3314
▁짓	-3315
목을	-3316
년이	-3317
▁수사	-3318
이익	-3319
▁않도록	-3320
▁책을	-3321
▁이건	-3322
▁가끔	-3323
시의	-3324
▁인터뷰	-3325
▁기업의	-3326
▁between	-3327
▁해요	-3328
uch	-3329
▁흐름	-3330
▁쓴	-3331
ults	-3332
세가	-3333
▁거죠	-3334
▁이름을	-3335
▁유사	-3336
▁연속	-3337
▁어머니	-3338
kr	-3339
경기	-3340
단이	-3341
들로	-3342
이즈	-3343
▁마무리	-3344
시를	-3345
▁종교	-3346
▁직장	-3347
CT	-3348
라스	-3349
▁지속적으로	-3350
▁고정	-3351
▁상황이	-3352
26	-3353
티브	-3354
ram	-3355
▁j	-3356
▁다가	-3357
▁자산	-3358
▁자세한	-3359
▁쓰는	-3360
……	-3361
▁솔루	-3362
▁어떠	-3363
문제	-3364
▁섭	-3365
▁에어	-3366
▁떠나	-3367
▁불과	-3368
씨가	-3369
▁만들고	-3370
발전	-3371
율을	-3372
장애	-3373
▁ind	-3374
▁부드	-3375
▁지원을	-3376
28	-3377
▁저희들이	-3378
른다	-3379
▁방지	-3380
▁좋을	-3381
▁data	-3382
신청	-3383
▁옛	-3384
니터	-3385
▁su	-3386
▁복지	-3387
▁소비자	-3388
▁자료를	-3389
병원	-3390
ER	-3391
BC	-3392
구조	-3393
비용	-3394
▁2010	-3395
▁SK	-3396
▁둘러	-3397
▁개별	-3398
▁찾을	-3399
▁게임을	-3400
▁reg	-3401
해를	-3402
▁det	-3403
▁최저	-3404
5%	-3405
▁획	-3406
▁내년	-3407
도와	-3408
▁따로	-3409
▁평화	-3410
▁명확	-3411
▁system	-3412
▁아내	-3413
▁5.	-3414
▁굳	-3415
우고	-3416
27	-3417
당이	-3418
anc	-3419
▁옥	-3420
▁규제	-3421
▁했던	-3422
면을	-3423
▁사람들의	-3424
ob	-3425
▁싫	-3426
icro	-3427
▁2000	-3428
▁Pro	-3429
▁장치	-3430
▁적합	-3431
▁동네	-3432
럼프	-3433
▁결론	-3434
▁절차	-3435
학적	-3436
▁없다고	-3437
▁des	-3438
▁Con	-3439
▁작용	-3440
▁고급	-3441
▁나도	-3442
ON	-3443
▁만들기	-3444
▁갈등	-3445
▁집행	-3446
yn	-3447
▁코스	-3448
▁http	-3449
▁맛있	-3450
▁강한	-3451
답니다	-3452
ik	-3453
▁울산	-3454
▁사진을	-3455
▁Ex	-3456
▁강력한	-3457
▁AI	-3458
▁using	-3459
입니까	-3460
년을	-3461
▁교회	-3462
▁sub	-3463
▁그렇지	-3464
▁갔	-3465
부장	-3466
▁깊은	-3467
▁보관	-3468
▁리뷰	-3469
▁혐의	-3470
▁덜	-3471
▁실천	-3472
상으로	-3473
▁밖에	-3474
▁구현	-3475
▁300	-3476
ution	-3477
▁맨	-3478
졌습니다	-3479
▁생명	-3480
▁숫	-3481
과정	-3482
스팅	-3483
▁채용	-3484
인으로	-3485
▁이용할	-3486
▁내용이	-3487
▁ar	-3488
▁드립니다	-3489
▁작동	-3490
간의	-3491
만에	-3492
▁str	-3493
마을	-3494
▁갖추	-3495
unc	-3496
▁중소기업	-3497
▁pres	-3498
하려고	-3499
쳤다	-3500
▁수업	-3501
놓고	-3502
▁한국의	-3503
▁임대	-3504
이의	-3505
▁가치를	-3506
▁사태	-3507
▁자랑	-3508
이번	-3509
▁아닐	-3510
▁점검	-3511
▁효과가	-3512
)||201	-3513
▁고양	-3514
▁자세히	-3515
▁옵션	-3516
▁강의	-3517
▁유일	-3518
velop	-3519
였던	-3520
▁듣고	-3521
▁현행	-3522
wo	-3523
▁파트	-3524
▁아는	-3525
위의	-3526
▁정기	-3527
▁길을	-3528
분의	-3529
구는	-3530
▁불러	-3531
▁이들은	-3532
등록	-3533
▁있으므로	-3534
▁포인트	-3535
▁IT	-3536
▁갑자기	-3537
▁링크	-3538
▁비롯한	-3539
▁이유로	-3540
류를	-3541
▁resp	-3542
▁이미지	-3543
▁이때	-3544
▁2011	-3545
▁나타나	-3546
▁자체가	-3547
▁구분	-3548
29	-3549
AR	-3550
▁알게	-3551
▁변화를	-3552
out	-3553
형을	-3554
▁항공편	-3555
▁버전	-3556
법에	-3557
▁장애인	-3558
ating	-3559
▁뽑	-3560
▁협의	-3561
cl	-3562
▁싶다	-3563
▁둔	-3564
ED	-3565
▁든	-3566
▁also	-3567
리그	-3568
▁식사	-3569
시키고	-3570
서에	-3571
▁빠져	-3572
조합	-3573
▁증거	-3574
프라	-3575
▁all	-3576
시킨	-3577
▁있으니	-3578
▁삭제	-3579
][	-3580
▁관계를	-3581
▁특수	-3582
▁롯데	-3583
▁철저	-3584
랐다	-3585
▁가능하다	-3586
▁used	-3587
▁누구나	-3588
▁싶어	-3589
관의	-3590
▁요금	-3591
지기	-3592
====	-3593
르기	-3594
',	-3595
▁직업	-3596
리오	-3597
▁훌	-3598
▁스페	-3599
▁말씀드	-3600
월부터	-3601
▁돕	-3602
▁생각하는	-3603
▁인간의	-3604
▁들고	-3605
▁식품	-3606
▁얻을	-3607
▁의원은	-3608
▁전해	-3609
점에	-3610
명은	-3611
지능	-3612
반기	-3613
으니까	-3614
▁나중에	-3615
▁거주	-3616
▁표준	-3617
hi	-3618
재를	-3619
사람	-3620
▁진단	-3621
▁수립	-3622
스에	-3623
▁말한다	-3624
▁보조	-3625
▁스크	-3626
▁기울	-3627
▁보증	-3628
▁노력을	-3629
▁발생한	-3630
▁모니터	-3631
란다	-3632
▁incre	-3633
이기도	-3634
▁노출	-3635
▁작업을	-3636
▁인상	-3637
▁덧붙	-3638
영화	-3639
아주	-3640
▁유명한	-3641
▁당신은	-3642
어는	-3643
추천	-3644
▁대표는	-3645
▁명예	-3646
께서는	-3647
식으로	-3648
▁포함한	-3649
▁영양	-3650
▁patients	-3651
▁유치	-3652
▁말하는	-3653
트가	-3654
▁지난달	-3655
님께서	-3656
▁나타났다	-3657
훼손	-3658
▁네이버	-3659
계약	-3660
ection	-3661
세기	-3662
▁정확한	-3663
▁실질	-3664
ne	-3665
▁충전	-3666
지방	-3667
▁닫	-3668
▁신호	-3669
▁웨	-3670
▁거부	-3671
주가	-3672
력과	-3673
▁착용	-3674
트의	-3675
▁십	-3676
계가	-3677
▁돼요	-3678
▁갤	-3679
▁창출	-3680
▁나이	-3681
▁펀	-3682
▁수영	-3683
인에	-3684
▁프레	-3685
▁사유	-3686
▁질의	-3687
문의	-3688
▁혹시	-3689
님은	-3690
▁거기에	-3691
▁분양	-3692
릅니다	-3693
▁198	-3694
ric	-3695
작용	-3696
에만	-3697
▁자극	-3698
▁거야	-3699
만남	-3700
▁지구	-3701
▁조치	-3702
cm	-3703
중한	-3704
소가	-3705
▁■	-3706
분기	-3707
단에	-3708
▁블록	-3709
▁일은	-3710
▁아이템	-3711
▁있는데요	-3712
▁공무원	-3713
국민	-3714
다른	-3715
▁소프트웨어	-3716
▁man	-3717
▁기도	-3718
었어요	-3719
▁헬	-3720
▁more	-3721
▁먹을	-3722
당의	-3723
▁누군	-3724
치지	-3725
▁사람들에게	-3726
▁심사	-3727
▁『	-3728
▁been	-3729
▁과연	-3730
협회	-3731
▁Z	-3732
안이	-3733
▁잠시	-3734
관광	-3735
보자	-3736
님을	-3737
▁포기	-3738
▁남성	-3739
당은	-3740
▁내에	-3741
▁out	-3742
▁즐기	-3743
vers	-3744
▁쓰고	-3745
함이	-3746
▁탁	-3747
년까지	-3748
▁작가	-3749
OS	-3750
▁시작했다	-3751
▁최대한	-3752
▁발생하는	-3753
▁제어	-3754
▁그럴	-3755
▁빅	-3756
▁검증	-3757
reat	-3758
▁꽤	-3759
▁끝나	-3760
았던	-3761
▁확정	-3762
▁가까운	-3763
경영	-3764
▁und	-3765
▁이제는	-3766
▁다이	-3767
문에	-3768
▁왜냐	-3769
▁테이	-3770
유의	-3771
▁영상을	-3772
▁분류	-3773
▁시스템을	-3774
권의	-3775
서가	-3776
··	-3777
tern	-3778
▁보세요	-3779
▁잇	-3780
제도	-3781
▁프로세	-3782
▁안에서	-3783
▁their	-3784
▁ra	-3785
▁소리	-3786
▁발생할	-3787
길을	-3788
▁물어	-3789
건설	-3790
▁뭔가	-3791
▁때까지	-3792
부와	-3793
멤버	-3794
▁여유	-3795
▁페이스	-3796
IN	-3797
▁겸	-3798
예술	-3799
카지노	-3800
▁확진	-3801
▁권한	-3802
여행	-3803
▁텐	-3804
tain	-3805
▁than	-3806
▁남북	-3807
소한	-3808
▁마음에	-3809
▁계획을	-3810
▁100%	-3811
표를	-3812
▁국회의	-3813
▁발언	-3814
터리	-3815
스와	-3816
▁실현	-3817
수로	-3818
▁꼬	-3819
▁접속	-3820
명으로	-3821
▁인근	-3822
쪽으로	-3823
ct	-3824
▁▶	-3825
▁생각해	-3826
▁극복	-3827
ame	-3828
oin	-3829
90	-3830
▁드라이	-3831
▁손을	-3832
▁별로	-3833
▁앞에서	-3834
▁왔다	-3835
▁대통령은	-3836
었을	-3837
▁흑	-3838
▁로그	-3839
원과	-3840
▁method	-3841
▁연기	-3842
▁살고	-3843
움이	-3844
ym	-3845
단은	-3846
AT	-3847
▁연장	-3848
면서도	-3849
▁지역의	-3850
▁상황에	-3851
▁맞춤	-3852
▁때마다	-3853
▁적극적으로	-3854
▁val	-3855
조차	-3856
서의	-3857
처리	-3858
▁차례	-3859
다니	-3860
▁키워	-3861
쪽에	-3862
조의	-3863
개정	-3864
▁바닥	-3865
무를	-3866
▁di	-3867
▁맞추	-3868
▁분리	-3869
(4	-3870
▁그들이	-3871
격을	-3872
▁것이고	-3873
카라	-3874
▁스트레	-3875
▁방법이	-3876
▁인물	-3877
▁펼쳐	-3878
▁흥미	-3879
ss	-3880
▁취득	-3881
▁무료로	-3882
받고	-3883
국이	-3884
▁꾸준히	-3885
▁2022	-3886
▁이유가	-3887
대상	-3888
▁동일한	-3889
▁힘든	-3890
선이	-3891
음이	-3892
했어요	-3893
▁그렇다면	-3894
▁하셨	-3895
지면서	-3896
▁책임을	-3897
▁Re	-3898
▁강원	-3899
▁매력	-3900
어로	-3901
아시아	-3902
▁의혹	-3903
▁새롭게	-3904
▁이들	-3905
비는	-3906
수도	-3907
ysis	-3908
▁패턴	-3909
▁베이	-3910
▁내에서	-3911
▁생각한다	-3912
▁제공하고	-3913
자동차	-3914
되어야	-3915
화에	-3916
▁트럼프	-3917
결과	-3918
▁발행	-3919
▁필요합니다	-3920
▁즉시	-3921
▁am	-3922
▁있습니까	-3923
▁느낄	-3924
▁된다는	-3925
▁왼	-3926
▁사람들을	-3927
▁걸쳐	-3928
▁명령	-3929
▁가을	-3930
▁inf	-3931
▁간의	-3932
▁렌	-3933
▁것이라는	-3934
▁쏟	-3935
금액	-3936
▁밝혀	-3937
진을	-3938
면에	-3939
▁x	-3940
▁지불	-3941
▁몸을	-3942
하의	-3943
▁국토	-3944
▁기존의	-3945
▁col	-3946
▁생기	-3947
▁올리	-3948
시스	-3949
▁짐	-3950
하여야	-3951
▁가격이	-3952
▁풍부	-3953
▁그걸	-3954
▁물질	-3955
▁넣어	-3956
경찰	-3957
▁inv	-3958
▁보수	-3959
oci	-3960
▁메이	-3961
▁위협	-3962
리티	-3963
재인	-3964
▁태양	-3965
▁청와	-3966
▁지배	-3967
1.	-3968
▁방법으로	-3969
계의	-3970
▁다루	-3971
aus	-3972
▁연습	-3973
▁재료	-3974
▁발달	-3975
▁라이브	-3976
▁굴	-3977
▁연출	-3978
65	-3979
▁no	-3980
▁꼽	-3981
con	-3982
▁들어서	-3983
▁vari	-3984
▁도서	-3985
히는	-3986
▁대통령이	-3987
iss	-3988
▁않게	-3989
▁pr	-3990
▁점에서	-3991
위한	-3992
▁집에	-3993
일까	-3994
종의	-3995
▁분들은	-3996
▁기반으로	-3997
▁카카오	-3998
▁가상	-3999
중앙	-4000
▁프랑스	-4001
▁주도	-4002
▁식으로	-4003
▁뉴욕	-4004
▁수수	-4005
▁특성	-4006
▁신속	-4007
▁외교	-4008
▁곳이	-4009
▁일주	-4010
항공	-4011
식품	-4012
▁조회	-4013
▁마이크	-4014
▁분쟁	-4015
▁척	-4016
▁청구	-4017
▁민족	-4018
사무	-4019
▁제목	-4020
▁2008	-4021
▁차이	-4022
▁작년	-4023
▁경우도	-4024
der	-4025
시민	-4026
운영	-4027
▁메모	-4028
vid	-4029
향신문	-4030
▁하시	-4031
▁당연히	-4032
▁아무리	-4033
▁휘	-4034
▁최선을	-4035
▁동료	-4036
공간	-4037
실에서	-4038
▁정도의	-4039
ely	-4040
▁현금	-4041
▁전투	-4042
학을	-4043
▁먹튀	-4044
▁벗어나	-4045
__	-4046
권이	-4047
rol	-4048
▁골프	-4049
▁비중	-4050
안은	-4051
▁연계	-4052
하니	-4053
▁가게	-4054
▁○	-4055
제한	-4056
▁늘어나	-4057
▁그러한	-4058
었지만	-4059
▁나머지	-4060
▁스테	-4061
▁클래	-4062
가락	-4063
▁암호	-4064
▁통일	-4065
▁목적으로	-4066
▁묘	-4067
▁때도	-4068
▁이외	-4069
▁2009	-4070
▁있죠	-4071
▁주인공	-4072
ry	-4073
트남	-4074
▁병원	-4075
▁그랬	-4076
▁올바	-4077
▁외국인	-4078
정도	-4079
ni	-4080
▁보입니다	-4081
▁US	-4082
▁번역	-4083
이하	-4084
▁sur	-4085
소개	-4086
용한	-4087
▁비행	-4088
▁환자	-4089
점으로	-4090
라우드	-4091
▁어울	-4092
▁생태	-4093
▁있음을	-4094
▁투입	-4095
▁창조	-4096
▁같아	-4097
▁여행을	-4098
십니까	-4099
▁대단	-4100
▁능력을	-4101
▁이메	-4102
▁모두가	-4103
▁깨끗	-4104
OR	-4105
▁자리를	-4106
▁선호	-4107
▁벌어	-4108
여서	-4109
100	-4110
▁사이즈	-4111
가족	-4112
ock	-4113
▁뮤	-4114
ower	-4115
▁해소	-4116
보세요	-4117
▁질환	-4118
▁내용의	-4119
ax	-4120
▁세월	-4121
ational	-4122
▁다소	-4123
▁늘어	-4124
시켰	-4125
▁숲	-4126
후기	-4127
독교	-4128
▁분들	-4129
▁농업	-4130
▁느낌이	-4131
제에	-4132
분석	-4133
▁국립	-4134
▁적은	-4135
ures	-4136
▁전공	-4137
선의	-4138
적으로는	-4139
▁상관	-4140
당을	-4141
증이	-4142
▁배출	-4143
▁동작	-4144
▁미술	-4145
▁본문	-4146
▁우승	-4147
▁받지	-4148
(5	-4149
tical	-4150
▁재산	-4151
▁무단	-4152
▁예비	-4153
▁두려	-4154
겼다	-4155
▁재생	-4156
명한	-4157
?"	-4158
▁만한	-4159
라서	-4160
rain	-4161
▁곳에	-4162
▁under	-4163
드리겠습니다	-4164
▁이용한	-4165
지어	-4166
▁develop	-4167
의료	-4168
▁time	-4169
TV	-4170
▁무엇을	-4171
▁종료	-4172
▁이용하여	-4173
▁핸	-4174
섰다	-4175
?”	-4176
▁그거	-4177
그러	-4178
일보	-4179
▁근육	-4180
AP	-4181
▁꼼	-4182
▁윈	-4183
▁형태로	-4184
▁했지만	-4185
▁these	-4186
▁일어	-4187
▁..	-4188
▁그린	-4189
회장	-4190
▁사실은	-4191
▁통하여	-4192
웠다	-4193
▁저렴한	-4194
▁처음으로	-4195
ov	-4196
▁2,	-4197
dition	-4198
기능	-4199
▁멤버	-4200
▁35	-4201
▁exam	-4202
▁도구	-4203
▁※	-4204
▁가고	-4205
국은	-4206
cent	-4207
▁form	-4208
IS	-4209
▁이웃	-4210
▁복잡한	-4211
▁《	-4212
▁게시물	-4213
▁사실상	-4214
▁마지막으로	-4215
ID	-4216
▁멈	-4217
Fi	-4218
대책	-4219
▁results	-4220
정치	-4221
▁법적	-4222
▁ab	-4223
▁cor	-4224
▁훌륭	-4225
▁인수	-4226
▁엄청난	-4227
▁two	-4228
ood	-4229
▁signific	-4230
▁보상	-4231
먼트	-4232
▁one	-4233
▁커뮤니티	-4234
인터	-4235
▁의심	-4236
▁상상	-4237
▁나올	-4238
교회	-4239
▁파트너	-4240
▁배달	-4241
력은	-4242
▁점이	-4243
▁상징	-4244
fter	-4245
율은	-4246
▁마스크	-4247
ects	-4248
▁중이다	-4249
상담	-4250
력의	-4251
▁pos	-4252
겠습니까	-4253
진흥	-4254
▁국정	-4255
▁방침	-4256
▁우주	-4257
▁무선	-4258
률을	-4259
▁뒤에	-4260
▁그에	-4261
▁인공지능	-4262
▁적절한	-4263
받을	-4264
▁ag	-4265
.[	-4266
ulation	-4267
▁공감	-4268
사에서	-4269
협의	-4270
▁자율	-4271
▁you	-4272
▁머리	-4273
스러	-4274
▁1000	-4275
▁성경	-4276
▁곤	-4277
▁비디오	-4278
출장마사지	-4279
▁단순히	-4280
▁감정	-4281
▁파워	-4282
▁잡아	-4283
드에	-4284
▁장비	-4285
▁완화	-4286
▁선언	-4287
코로나	-4288
-4	-4289
문이	-4290
▁그려	-4291
대회	-4292
▁미치는	-4293
것도	-4294
▁행위	-4295
▁세상을	-4296
▁끌어	-4297
피스	-4298
▁이탈	-4299
▁못했다	-4300
▁이슈	-4301
▁Com	-4302
▁모집	-4303
전거	-4304
터를	-4305
ature	-4306
주민	-4307
ef	-4308
3)	-4309
▁스위	-4310
▁것인가	-4311
사용	-4312
경향신문	-4313
▁넘는	-4314
▁선발	-4315
▁않을까	-4316
▁소요	-4317
▁이걸	-4318
▁무엇보다	-4319
▁동반	-4320
▁물을	-4321
▁처벌	-4322
잖아	-4323
치료	-4324
▁1)	-4325
건강	-4326
공원	-4327
▁집에서	-4328
▁시작한	-4329
깁니다	-4330
체육	-4331
ES	-4332
▁em	-4333
▁하나는	-4334
▁It	-4335
▁평생	-4336
▁소설	-4337
▁와서	-4338
▁축구	-4339
▁많습니다	-4340
전이	-4341
▁sim	-4342
▁추구	-4343
▁신체	-4344
▁국방	-4345
▁블루	-4346
▁달려	-4347
▁ㅠㅠ	-4348
▁세부	-4349
▁화려	-4350
관에	-4351
▁길이	-4352
▁모르는	-4353
▁이스	-4354
데이터	-4355
ues	-4356
▁공모	-4357
ression	-4358
▁업무를	-4359
▁생각하고	-4360
하우	-4361
ons	-4362
하시고	-4363
▁적어도	-4364
▁된다고	-4365
▁수있는	-4366
줘야	-4367
▁미세	-4368
AN	-4369
▁투표	-4370
▁통계	-4371
▁받으	-4372
▁판결	-4373
les	-4374
IC	-4375
이죠	-4376
일은	-4377
▁일반적인	-4378
주로	-4379
▁것인지	-4380
▁회사의	-4381
▁어떠한	-4382
▁위로	-4383
uct	-4384
▁생긴	-4385
▁프리미	-4386
▁참조	-4387
주시	-4388
▁보이고	-4389
국가	-4390
▁회사는	-4391
신이	-4392
겠어요	-4393
▁텍	-4394
▁other	-4395
국제	-4396
자들에게	-4397
▁편리	-4398
▁등은	-4399
▁자금	-4400
리트	-4401
▁Wi	-4402
EC	-4403
이용	-4404
▁요리	-4405
▁쉽지	-4406
사랑	-4407
▁규칙	-4408
▁종종	-4409
▁며	-4410
▁아쉬	-4411
화의	-4412
▁창의	-4413
ments	-4414
본부	-4415
ized	-4416
▁앨	-4417
▁섹	-4418
own	-4419
▁실내	-4420
▁사과	-4421
▁미니	-4422
▁다녀	-4423
▁dec	-4424
ix	-4425
▁입장을	-4426
▁이래	-4427
▁응답	-4428
▁비롯해	-4429
▁서울시	-4430
▁•	-4431
테크	-4432
렸습니다	-4433
▁차단	-4434
증권	-4435
▁①	-4436
▁대표적인	-4437
▁대규모	-4438
▁상세	-4439
▁접수	-4440
▁크리스	-4441
동물	-4442
▁항목	-4443
▁마찬가지로	-4444
▁대답	-4445
▁섭취	-4446
▁현황	-4447
정으로	-4448
35	-4449
텔레	-4450
▁over	-4451
▁회장	-4452
부모	-4453
▁상태에서	-4454
IT	-4455
▁중요합니다	-4456
▁베팅	-4457
lu	-4458
▁건강한	-4459
에선	-4460
▁상품을	-4461
▁얘기를	-4462
▁교체	-4463
▁되기	-4464
▁기회	-4465
▁대선	-4466
▁왜냐하면	-4467
는가	-4468
울러	-4469
특별	-4470
▁유리	-4471
▁교육을	-4472
▁주거	-4473
아웃	-4474
▁our	-4475
▁살짝	-4476
ting	-4477
▁덕분에	-4478
▁level	-4479
▁다음에	-4480
▁관련해	-4481
▁소송	-4482
ㅋㅋㅋㅋ	-4483
ization	-4484
▁있을까	-4485
▁좋아요	-4486
ml	-4487
군의	-4488
▁아이폰	-4489
▁에이	-4490
▁will	-4491
리면	-4492
▁but	-4493
▁구체적인	-4494
구에	-4495
▁군사	-4496
▁포함하는	-4497
▁덧붙였다	-4498
▁그렇습니다	-4499
▁보였다	-4500
▁잠재	-4501
자들	-4502
▁무역	-4503
▁봅니다	-4504
▁다이어	-4505
방을	-4506
▁융	-4507
▁계속해서	-4508
▁공항	-4509
▁인권	-4510
▁짧은	-4511
소에	-4512
누리	-4513
▁해양	-4514
▁시기	-4515
말로	-4516
근혜	-4517
향을	-4518
▁안전한	-4519
▁엑	-4520
45	-4521
▁일자리	-4522
천히	-4523
▁significant	-4524
함에	-4525
▁목록	-4526
▁전송	-4527
▁눌	-4528
▁열어	-4529
물은	-4530
▁so	-4531
▁incl	-4532
▁시간에	-4533
▁낸	-4534
▁익숙	-4535
▁감각	-4536
▁대기	-4537
▁초과	-4538
▁페이스북	-4539
▁웹사이트	-4540
▁런	-4541
▁앞두고	-4542
▁같은데	-4543
▁기업이	-4544
▁나아가	-4545
33	-4546
▁솔루션	-4547
▁거짓	-4548
▁spec	-4549
▁뛰어	-4550
라엘	-4551
해서는	-4552
▁셋	-4553
▁에너	-4554
▁잡고	-4555
ever	-4556
▁베트남	-4557
등급	-4558
▁쉬운	-4559
인증	-4560
▁갖춘	-4561
판매	-4562
▁의미를	-4563
▁하더라도	-4564
▁공사	-4565
▁캠페	-4566
▁방향으로	-4567
나가	-4568
해주세요	-4569
▁돈이	-4570
▁천천히	-4571
AC	-4572
arg	-4573
▁보여주	-4574
▁없어요	-4575
▁모습이	-4576
▁트렌	-4577
▁셈	-4578
▁바란다	-4579
▁신설	-4580
보를	-4581
침해	-4582
▁원을	-4583
▁사용하고	-4584
▁관찰	-4585
향이	-4586
전략	-4587
심이	-4588
▁하나로	-4589
▁발급	-4590
▁엉	-4591
▁내놓	-4592
▁체크인	-4593
▁그녀는	-4594
▁데이트	-4595
년에는	-4596
▁환불	-4597
▁입법	-4598
▁dist	-4599
▁않으	-4600
▁패션	-4601
▁보시면	-4602
▁둘째	-4603
ases	-4604
AS	-4605
▁comm	-4606
자들을	-4607
파크	-4608
)'	-4609
▁통화	-4610
▁나갈	-4611
져서	-4612
어버	-4613
▁문제에	-4614
▁②	-4615
▁묵	-4616
▁인지	-4617
차가	-4618
▁모아	-4619
▁하자	-4620
모델	-4621
년의	-4622
량의	-4623
▁세포	-4624
의원	-4625
간다	-4626
자산	-4627
일로	-4628
식은	-4629
▁집단	-4630
널리	-4631
▁근본	-4632
▁그를	-4633
소는	-4634
분야	-4635
88	-4636
ism	-4637
▁본인	-4638
▁조치를	-4639
▁독특	-4640
드릴	-4641
리게	-4642
포인트	-4643
▁대변	-4644
▁산책	-4645
ange	-4646
▁방안을	-4647
▁exper	-4648
이사	-4649
▁자원	-4650
기자	-4651
▁추가로	-4652
ie	-4653
▁사랑을	-4654
▁produc	-4655
io	-4656
▁그건	-4657
▁낭	-4658
▁쌍	-4659
금의	-4660
▁최초로	-4661
▁보이지	-4662
▁가면	-4663
▁피해를	-4664
uring	-4665
법률	-4666
관련	-4667
31	-4668
earch	-4669
▁냄	-4670
고가	-4671
▁분명히	-4672
실이	-4673
▁감안	-4674
▁사항을	-4675
▁개혁	-4676
일본	-4677
미터	-4678
ning	-4679
▁아닌가	-4680
▁힘이	-4681
▁취약	-4682
▁노인	-4683
▁심각한	-4684
▁자동으로	-4685
very	-4686
▁남은	-4687
만으로	-4688
----------------	-4689
▁추정	-4690
▁비트	-4691
▁후원	-4692
ition	-4693
ven	-4694
▁실무	-4695
▁perform	-4696
▁털	-4697
▁없음	-4698
▁인류	-4699
▁부문	-4700
▁시장의	-4701
▁해당하는	-4702
▁대기업	-4703
▁num	-4704
하면서도	-4705
▁말이다	-4706
▁cells	-4707
PS	-4708
▁정당	-4709
구역	-4710
▁흔들	-4711
▁규모의	-4712
irst	-4713
▁번호	-4714
▁경제적	-4715
▁기본적으로	-4716
▁첫째	-4717
도체	-4718
▁섞	-4719
▁구속	-4720
워서	-4721
erg	-4722
소의	-4723
▁아울러	-4724
▁중국의	-4725
▁띄	-4726
▁기부	-4727
▁지원하는	-4728
키는	-4729
▁별도의	-4730
듭니다	-4731
질이	-4732
편집	-4733
yl	-4734
업계	-4735
▁진입	-4736
▁알려졌다	-4737
ected	-4738
▁알아보	-4739
▁즐거	-4740
▁오늘날	-4741
려서	-4742
가에	-4743
vely	-4744
ild	-4745
▁깊이	-4746
▁장관	-4747
▁명이	-4748
▁일본의	-4749
▁그만큼	-4750
▁간단한	-4751
스토랑	-4752
▁et	-4753
▁제품은	-4754
ions	-4755
직한	-4756
처를	-4757
▁무시	-4758
리며	-4759
▁좁	-4760
▁환경을	-4761
▁무게	-4762
▁성과를	-4763
▁이로	-4764
판을	-4765
-5	-4766
▁목표로	-4767
▁관람	-4768
▁such	-4769
▁좋지	-4770
▁꼼꼼	-4771
관에서	-4772
unction	-4773
.,	-4774
지에서	-4775
▁테이블	-4776
안의	-4777
▁긴급	-4778
▁멋진	-4779
ology	-4780
르지	-4781
▁수준의	-4782
▁심리	-4783
▁범위	-4784
▁가이드	-4785
▁오프	-4786
▁슈퍼	-4787
니어	-4788
▁유저	-4789
▁op	-4790
▁눈을	-4791
▁발굴	-4792
냅니다	-4793
지난	-4794
시피	-4795
▁썼	-4796
▁풀어	-4797
▁향해	-4798
대에서	-4799
감독	-4800
▁process	-4801
버스	-4802
▁문재인	-4803
조를	-4804
▁돌아가	-4805
▁들여	-4806
ize	-4807
▁지역에	-4808
▁https	-4809
▁에서	-4810
▁기독교	-4811
나다	-4812
▁때가	-4813
▁나름	-4814
▁깔끔	-4815
▁주관	-4816
▁있었고	-4817
▁운영하는	-4818
▁2)	-4819
▁탄생	-4820
pos	-4821
가입	-4822
동의	-4823
▁its	-4824
▁사람에게	-4825
▁결과가	-4826
▁높이	-4827
▁너희	-4828
▁뛰어난	-4829
▁한정	-4830
을까	-4831
▁완벽한	-4832
▁혜택을	-4833
PC	-4834
▁대해서도	-4835
봐야	-4836
적이다	-4837
▁음식을	-4838
▁바꿔	-4839
▁different	-4840
와는	-4841
▁^^	-4842
▁읽어	-4843
▁백신	-4844
▁고객이	-4845
▁의미가	-4846
식의	-4847
▁손해	-4848
▁했고	-4849
ake	-4850
▁6.	-4851
ability	-4852
▁디자	-4853
▁2007	-4854
ish	-4855
▁가야	-4856
일의	-4857
▁문서	-4858
▁칠	-4859
자원	-4860
▁includ	-4861
바로	-4862
▁투자를	-4863
하겠다는	-4864
▁획득	-4865
▁로봇	-4866
▁쏟아	-4867
▁중요하다	-4868
량은	-4869
▁있으나	-4870
▁호흡	-4871
▁이스라엘	-4872
직원	-4873
als	-4874
2019	-4875
ox	-4876
▁간편	-4877
▁외에도	-4878
▁모여	-4879
ays	-4880
▁패키	-4881
▁CO	-4882
▁스파	-4883
스포츠	-4884
▁월드	-4885
▁자전거	-4886
▁통제	-4887
화와	-4888
법은	-4889
▁En	-4890
▁appro	-4891
▁포장	-4892
데이	-4893
▁비상	-4894
▁나온다	-4895
▁결코	-4896
acter	-4897
▁소방	-4898
스테	-4899
▁스피	-4900
▁라인	-4901
▁지자	-4902
▁펜	-4903
▁앉아	-4904
ollow	-4905
▁칭	-4906
▁이행	-4907
▁고객의	-4908
▁여론	-4909
▁이른	-4910
▁may	-4911
▁기회가	-4912
가지고	-4913
▁대통령의	-4914
식에	-4915
▁정확하게	-4916
▁가까이	-4917
프레	-4918
▁너무나	-4919
▁Al	-4920
▁$	-4921
alth	-4922
▁유기	-4923
▁맞게	-4924
77	-4925
▁방식을	-4926
▁못할	-4927
1,	-4928
ould	-4929
▁건조	-4930
성장	-4931
▁조작	-4932
.05	-4933
▁분위기	-4934
▁친환경	-4935
2,	-4936
실에	-4937
44	-4938
▁곳에서	-4939
법인	-4940
▁남겨	-4941
de	-4942
cur	-4943
▁우리에게	-4944
▁교수는	-4945
나게	-4946
▁사상	-4947
하시기	-4948
▁후기	-4949
▁45	-4950
법이	-4951
▁헤어	-4952
▁pol	-4953
▁있고요	-4954
psil	-4955
▁성인	-4956
하였고	-4957
▁파이	-4958
▁심지어	-4959
ici	-4960
▁따뜻한	-4961
효과	-4962
개인	-4963
▁기재	-4964
▁Fig	-4965
▁확실히	-4966
▁레스토랑	-4967
ement	-4968
▁연합	-4969
럭시	-4970
▁정치적	-4971
old	-4972
조선	-4973
indow	-4974
psilon	-4975
종합	-4976
▁맞이	-4977
ise	-4978
sp	-4979
도우	-4980
hes	-4981
▁무조건	-4982
▁장면	-4983
▁평가를	-4984
자금	-4985
물에	-4986
원한	-4987
hem	-4988
▁보완	-4989
명에	-4990
비아	-4991
▁스타트	-4992
십니다	-4993
▁승인	-4994
▁민주당	-4995
▁열고	-4996
▁나눠	-4997
협력	-4998
져야	-4999
행정	-5000
▁어려움을	-5001
▁meas	-5002
▁말할	-5003
▁목표를	-5004
▁응용	-5005
화폐	-5006
상태	-5007
▁사항은	-5008
▁뷰	-5009
▁만난	-5010
▁마감	-5011
▁gener	-5012
▁별도	-5013
▁인구	-5014
▁신문	-5015
cer	-5016
▁analysis	-5017
▁대회	-5018
고는	-5019
▁끊임	-5020
▁partic	-5021
▁무엇인가	-5022
▁클라우드	-5023
▁중복	-5024
▁햇	-5025
질의	-5026
▁점은	-5027
기기	-5028
erved	-5029
hed	-5030
▁임시	-5031
▁발휘	-5032
▁유발	-5033
▁덮	-5034
ined	-5035
▁유연	-5036
번에	-5037
▁충족	-5038
▁파괴	-5039
ha	-5040
하이	-5041
▁기후	-5042
▁나왔다	-5043
99	-5044
▁알려져	-5045
▁폭발	-5046
MS	-5047
▁아버지	-5048
▁□	-5049
▁방안	-5050
▁벨	-5051
▁별도로	-5052
▁동영상	-5053
▁있었는데	-5054
▁절반	-5055
ld	-5056
▁분야에서	-5057
이었습니다	-5058
액을	-5059
▁변동	-5060
▁디스	-5061
▁빵	-5062
▁there	-5063
시대	-5064
이상	-5065
▁케이블	-5066
운드	-5067
▁한다면	-5068
▁아들	-5069
▁전력	-5070
eld	-5071
▁법무	-5072
▁사이의	-5073
▁정책을	-5074
▁잘못된	-5075
▁생겨	-5076
▁봉사	-5077
▁up	-5078
▁빚	-5079
저는	-5080
타민	-5081
상공	-5082
▁연간	-5083
▁시장에	-5084
▁어깨	-5085
▁fact	-5086
▁없지만	-5087
▁만남	-5088
▁일에	-5089
▁유도	-5090
▁그녀의	-5091
ET	-5092
학의	-5093
ared	-5094
▁생존	-5095
▁work	-5096
▁것들이	-5097
코리아	-5098
▁부처	-5099
인들의	-5100
▁버스	-5101
▁어제	-5102
전의	-5103
ink	-5104
▁현장에서	-5105
▁노트	-5106
▁부족한	-5107
▁국무	-5108
▁제정	-5109
view	-5110
formation	-5111
▁하였다	-5112
.'	-5113
조직	-5114
ality	-5115
통합	-5116
▁말은	-5117
▁아닙니까	-5118
▁가치가	-5119
▁33	-5120
▁우수한	-5121
▁Res	-5122
▁인프라	-5123
셨습니다	-5124
▁이미지를	-5125
▁여부를	-5126
▁부품	-5127
▁않아도	-5128
배송	-5129
▁시장에서	-5130
▁구독	-5131
▁넣고	-5132
▁되게	-5133
▁명시	-5134
공항	-5135
▁싶습니다	-5136
▁주신	-5137
▁홍콩	-5138
4)	-5139
▁받아들	-5140
옵니다	-5141
수에	-5142
스티	-5143
▁복합	-5144
▁알려진	-5145
내가	-5146
▁대법	-5147
▁외에	-5148
▁엔진	-5149
▁자꾸	-5150
▁기능이	-5151
▁수원	-5152
unt	-5153
EN	-5154
▁car	-5155
▁자연스럽게	-5156
▁into	-5157
리케이션	-5158
그레이	-5159
▁경남	-5160
▁선생님	-5161
▁돌려	-5162
▁안타	-5163
▁설명을	-5164
▁주제로	-5165
rough	-5166
▁한반	-5167
▁아직도	-5168
▁증명	-5169
2.	-5170
조정	-5171
간에	-5172
▁당사	-5173
▁배포	-5174
▁이처럼	-5175
▁주장했다	-5176
▁물건	-5177
▁문을	-5178
▁present	-5179
성도	-5180
가기	-5181
▁제품의	-5182
▁정확히	-5183
tivity	-5184
▁재무	-5185
▁36	-5186
▁비용을	-5187
▁라는	-5188
했기	-5189
kg	-5190
▁AP	-5191
▁흘러	-5192
▁소셜	-5193
ency	-5194
▁물리	-5195
▁파일을	-5196
▁회사가	-5197
▁가로	-5198
▁힐	-5199
리라	-5200
▁거듭	-5201
▁화학	-5202
▁하드	-5203
화는	-5204
▁담아	-5205
▁진정한	-5206
▁낳	-5207
였고	-5208
함과	-5209
▁낼	-5210
▁관객	-5211
▁50%	-5212
▁출판	-5213
▁면접	-5214
▁분이	-5215
▁종목	-5216
▁꿈을	-5217
▁아빠	-5218
▁샌	-5219
해주는	-5220
tit	-5221
▁매매	-5222
▁기분	-5223
오피	-5224
규직	-5225
▁10%	-5226
▁수십	-5227
▁동기	-5228
▁다르게	-5229
ype	-5230
▁조언	-5231
▁다행	-5232
오고	-5233
▁조심	-5234
%),	-5235
▁새벽	-5236
▁전면	-5237
▁SNS	-5238
IP	-5239
▁정비	-5240
▁공간을	-5241
▁활발	-5242
▁접촉	-5243
▁않았습니다	-5244
▁전남	-5245
산물	-5246
▁재밌	-5247
▁운동을	-5248
▁어디서	-5249
▁내고	-5250
▁PD	-5251
▁느낌을	-5252
화하는	-5253
▁증권	-5254
▁운용	-5255
▁걸어	-5256
더군요	-5257
▁등과	-5258
▁청소	-5259
▁내는	-5260
▁쌀	-5261
;;	-5262
?)	-5263
검사	-5264
▁조금씩	-5265
▁진실	-5266
▁기록했다	-5267
▁오류	-5268
학년	-5269
▁상대방	-5270
▁분위기를	-5271
▁봐야	-5272
▁합리	-5273
▁지적했다	-5274
▁부탁드립니다	-5275
▁줄어들	-5276
▁받게	-5277
▁뭘	-5278
▁고객센터	-5279
▁없어서	-5280
fic	-5281
들어	-5282
았고	-5283
체인	-5284
▁어플	-5285
군은	-5286
▁test	-5287
견을	-5288
심의	-5289
▁Sp	-5290
▁침해	-5291
▁도박	-5292
▁맛집	-5293
▁위기	-5294
▁희생	-5295
▁나은	-5296
▁집을	-5297
받아	-5298
임이	-5299
석을	-5300
▁나선	-5301
▁KT	-5302
▁그러면서	-5303
▁어쩌	-5304
▁공통	-5305
부에서	-5306
재단	-5307
▁부르	-5308
▁나오고	-5309
▁장착	-5310
력에	-5311
▁넷	-5312
▁프리미엄	-5313
▁초대	-5314
▁승리	-5315
▁가능성을	-5316
▁침대	-5317
▁그저	-5318
▁하나가	-5319
▁마이	-5320
▁메인	-5321
상황	-5322
atic	-5323
▁박근혜	-5324
▁아시	-5325
▁한글	-5326
▁살펴보	-5327
▁야외	-5328
연을	-5329
▁입고	-5330
▁것이며	-5331
오늘	-5332
▁측은	-5333
납니다	-5334
▁abo	-5335
회담	-5336
▁있나요	-5337
▁본다	-5338
▁언제나	-5339
▁전년	-5340
▁방역	-5341
▁전개	-5342
▁충분한	-5343
▁앞으로도	-5344
75	-5345
▁비난	-5346
▁게다가	-5347
로의	-5348
▁능력이	-5349
▁성령	-5350
치게	-5351
▁do	-5352
발의	-5353
▁떠올	-5354
▁현재의	-5355
▁북한의	-5356
질환	-5357
▁오랫	-5358
신의	-5359
▁당선	-5360
▁원인	-5361
▁세대	-5362
▁들었다	-5363
▁롤	-5364
도서	-5365
▁지진	-5366
36	-5367
속에	-5368
▁육성	-5369
▁after	-5370
▁쥐	-5371
▁애니	-5372
▁점원	-5373
’(	-5374
▁환영	-5375
림을	-5376
▁직무	-5377
▁단독	-5378
▁관련하여	-5379
▁prob	-5380
▁대처	-5381
▁제공할	-5382
배를	-5383
페이스	-5384
▁등급	-5385
미디어	-5386
▁follow	-5387
트에	-5388
▁나쁜	-5389
채팅	-5390
어의	-5391
▁32	-5392
▁감상	-5393
국에	-5394
▁뜻을	-5395
▁쳐	-5396
▁Ad	-5397
▁구성된	-5398
▁일시	-5399
▁sol	-5400
▁서류	-5401
▁use	-5402
▁포함되어	-5403
▁주시	-5404
▁계신	-5405
기구	-5406
▁층	-5407
▁가볍	-5408
▁갖는	-5409
▁질문을	-5410
권에	-5411
Phi	-5412
▁땀	-5413
▁멀리	-5414
▁개인의	-5415
▁헌법	-5416
▁라고	-5417
화로	-5418
EO	-5419
국을	-5420
▁내지	-5421
▁유아	-5422
▁이끌어	-5423
▁끝까지	-5424
드와	-5425
2020	-5426
▁미래를	-5427
▁하나님이	-5428
▁잠깐	-5429
▁이들이	-5430
▁해보	-5431
▁식당	-5432
▁IP	-5433
산의	-5434
indows	-5435
▁상태를	-5436
건축	-5437
▁끝에	-5438
▁세탁	-5439
▁차원에서	-5440
▁규정하고	-5441
▁다섯	-5442
▁오래된	-5443
률은	-5444
조에	-5445
-10	-5446
보건	-5447
리즘	-5448
연금	-5449
▁않지만	-5450
ian	-5451
▁류	-5452
▁문자	-5453
조제	-5454
이니	-5455
▁의존	-5456
▁적응	-5457
▁조례	-5458
▁신앙	-5459
▁그만	-5460
▁강제	-5461
▁실적	-5462
sc	-5463
▁클럽	-5464
▁양성	-5465
▁탓	-5466
▁상대적으로	-5467
▁하실	-5468
활동을	-5469
▁콘텐츠를	-5470
▁자가	-5471
-6	-5472
▁의결	-5473
▁단일	-5474
▁이재	-5475
▁찾고	-5476
▁개방	-5477
▁아예	-5478
▁공기	-5479
.10	-5480
인들은	-5481
▁삽	-5482
▁이전에	-5483
ings	-5484
▁사용하면	-5485
▁되겠습니다	-5486
▁훌륭한	-5487
망을	-5488
가로	-5489
치의	-5490
▁supp	-5491
▁수익을	-5492
▁튀	-5493
▁결정을	-5494
▁테마	-5495
▁지출	-5496
48	-5497
▁준수	-5498
▁믿음	-5499
대행	-5500
▁세워	-5501
▁특허	-5502
히고	-5503
천만	-5504
▁mo	-5505
▁(0)||201	-5506
TS	-5507
▁올림픽	-5508
▁사실이	-5509
▁인기를	-5510
주에	-5511
▁상대로	-5512
에너지	-5513
▁지연	-5514
▁med	-5515
개혁	-5516
▁넓은	-5517
갑니다	-5518
테고	-5519
▁당장	-5520
▁것보다	-5521
ulti	-5522
▁재배	-5523
▁최소한	-5524
▁눌러	-5525
ible	-5526
▁무엇이	-5527
▁only	-5528
▁하시는	-5529
▁등에서	-5530
개가	-5531
억원을	-5532
▁정체	-5533
▁어렵다	-5534
지구	-5535
▁여러분의	-5536
action	-5537
▁150	-5538
▁시장을	-5539
CC	-5540
▁덤프	-5541
▁앨범	-5542
rip	-5543
▁곳곳	-5544
소에서	-5545
▁예전	-5546
▁스케	-5547
인에게	-5548
▁WiFi	-5549
▁변화가	-5550
▁관광객	-5551
트리	-5552
▁끈	-5553
▁묶	-5554
았는데	-5555
.11	-5556
▁크기	-5557
▁재난	-5558
▁목사	-5559
▁뚜	-5560
▁유니	-5561
▁날씨	-5562
▁오랫동안	-5563
▁않기	-5564
위원장	-5565
▁each	-5566
웨이	-5567
~3	-5568
시로	-5569
력으로	-5570
군이	-5571
▁말합니다	-5572
▁비타민	-5573
▁사랑하는	-5574
ung	-5575
▁담은	-5576
카이	-5577
▁보면서	-5578
▁우리를	-5579
▁과도	-5580
ective	-5581
부산	-5582
▁주기	-5583
▁충격	-5584
▁밴	-5585
▁group	-5586
대비	-5587
▁수단	-5588
55	-5589
심으로	-5590
액이	-5591
▁오염	-5592
고기	-5593
!!!	-5594
▁줍니다	-5595
▁신선	-5596
▁채택	-5597
▁행복한	-5598
▁지속적인	-5599
기지	-5600
▁드리겠습니다	-5601
▁믿고	-5602
가스	-5603
▁id	-5604
▁이중	-5605
있게	-5606
▁sec	-5607
▁가구	-5608
▁경험이	-5609
▁독특한	-5610
▁벌써	-5611
▁특징으로	-5612
▁핀	-5613
▁액세	-5614
▁보여주는	-5615
사업을	-5616
▁촉구	-5617
▁멘	-5618
하다가	-5619
수와	-5620
▁트레이	-5621
▁버튼을	-5622
물관	-5623
▁반도체	-5624
▁법인	-5625
▁측면에서	-5626
▁세금	-5627
▁기본적인	-5628
재가	-5629
▁것들을	-5630
▁셔	-5631
▁합격	-5632
▁사용해	-5633
▁38	-5634
owever	-5635
▁new	-5636
왔습니다	-5637
▁세종	-5638
ural	-5639
프로그램	-5640
▁않습니까	-5641
시티	-5642
▁고속	-5643
물로	-5644
ium	-5645
해야합니다	-5646
▁control	-5647
설팅	-5648
▁지방자치	-5649
▁저작권침해	-5650
inal	-5651
▁냄새	-5652
▁그렇죠	-5653
고객	-5654
▁To	-5655
▁전략을	-5656
▁가격은	-5657
▁어쨌	-5658
래도	-5659
▁치료를	-5660
▁점차	-5661
▁pa	-5662
▁떠오	-5663
▁로마	-5664
▁시켜	-5665
▁곳은	-5666
▁전날	-5667
▁샘	-5668
범죄	-5669
:0	-5670
▁34	-5671
ield	-5672
단지	-5673
▁행동을	-5674
ode	-5675
htt	-5676
약품	-5677
▁우려가	-5678
등을	-5679
▁2006	-5680
▁오른쪽	-5681
가와	-5682
na	-5683
▁케이스	-5684
▁fe	-5685
ins	-5686
▁제공한다	-5687
▁무기	-5688
▁계열	-5689
▁촉진	-5690
▁때에는	-5691
ider	-5692
▁아무런	-5693
▁선택할	-5694
▁씻	-5695
▁트위	-5696
▁앤	-5697
▁심의	-5698
▁후반	-5699
브리	-5700
▁혼란	-5701
차례	-5702
▁일자	-5703
▁형태의	-5704
▁몸에	-5705
체에	-5706
트롤	-5707
▁불리는	-5708
▁이르	-5709
▁멀티	-5710
▁아이들이	-5711
▁회전	-5712
러리	-5713
▁슬롯	-5714
▁비정	-5715
▁많고	-5716
보드	-5717
세포	-5718
▁sm	-5719
AL	-5720
▁주제	-5721
▁한마	-5722
▁이익을	-5723
▁계절	-5724
▁청와대	-5725
▁지침	-5726
▁좋고	-5727
▁마련되어	-5728
)(	-5729
▁both	-5730
Epsilon	-5731
▁가벼	-5732
▁배터리	-5733
▁임상	-5734
▁발표한	-5735
▁추억	-5736
ration	-5737
▁ㅎㅎ	-5738
▁적립	-5739
ved	-5740
▁초반	-5741
AI	-5742
산이	-5743
내기	-5744
▁체육	-5745
로우	-5746
raph	-5747
▁개정안은	-5748
친구	-5749
▁Ac	-5750
▁스타트업	-5751
▁treat	-5752
▁경고	-5753
▁활용해	-5754
▁이들의	-5755
체계	-5756
AD	-5757
디아	-5758
▁닭	-5759
▁귀하의	-5760
▁권장	-5761
▁활용한	-5762
코스	-5763
▁예산을	-5764
▁상태로	-5765
회원	-5766
▁방해	-5767
▁제휴	-5768
▁했을	-5769
ale	-5770
▁where	-5771
▁솔직	-5772
▁이야기가	-5773
▁없기	-5774
▁sam	-5775
▁사용되는	-5776
AM	-5777
수수	-5778
자유	-5779
▁저항	-5780
▁것만	-5781
▁주시면	-5782
▁2005	-5783
▁방법에	-5784
▁지역에서	-5785
ook	-5786
씨의	-5787
▁들어가는	-5788
▁선교	-5789
▁obs	-5790
▁세상에	-5791
▁혐의로	-5792
▁사람도	-5793
문학	-5794
세의	-5795
▁날짜	-5796
▁적극적인	-5797
타임	-5798
ital	-5799
▁긍정적인	-5800
더라구요	-5801
▁met	-5802
니까요	-5803
▁투명	-5804
▁조각	-5805
▁다음은	-5806
▁아니에요	-5807
▁관리를	-5808
▁올라가	-5809
하기에	-5810
상과	-5811
fore	-5812
셔도	-5813
전화	-5814
▁받아들이	-5815
▁관련한	-5816
val	-5817
▁진보	-5818
아버	-5819
af	-5820
▁공장	-5821
38	-5822
▁개봉	-5823
▁●	-5824
▁사용자가	-5825
해지는	-5826
▁대리	-5827
▁캡	-5828
공동	-5829
▁탑재	-5830
▁임신	-5831
▁수치	-5832
사이	-5833
▁역사를	-5834
▁그러므로	-5835
▁냉장	-5836
▁Pl	-5837
▁first	-5838
▁지금도	-5839
▁계시	-5840
▁코드	-5841
▁흰	-5842
▁되도록	-5843
역시	-5844
(6	-5845
▁이용하는	-5846
용품	-5847
▁모임	-5848
▁생활을	-5849
▁분야의	-5850
감사	-5851
▁시장은	-5852
▁유의	-5853
▁이상이	-5854
▁set	-5855
▁풍경	-5856
▁안정적인	-5857
37	-5858
ants	-5859
스턴	-5860
▁갤럭시	-5861
▁원활	-5862
영업	-5863
▁일부개정	-5864
▁여러분이	-5865
▁이후에	-5866
종을	-5867
▁나에게	-5868
▁챙겨	-5869
▁전북	-5870
▁유일한	-5871
▁구체적으로	-5872
민주당	-5873
▁보존	-5874
▁만들어진	-5875
책을	-5876
센터를	-5877
▁회계	-5878
차는	-5879
▁임금	-5880
▁연령	-5881
▁회장은	-5882
▁떡	-5883
있습니다	-5884
▁min	-5885
▁화려한	-5886
권은	-5887
▁인력	-5888
▁워크	-5889
ms	-5890
▁밸	-5891
▁For	-5892
.01	-5893
▁어려워	-5894
▁천연	-5895
▁사용한	-5896
청은	-5897
ological	-5898
었다고	-5899
미국	-5900
▁뜨거운	-5901
▁연말	-5902
부로	-5903
▁수백	-5904
▁말해	-5905
▁보지	-5906
▁tech	-5907
성으로	-5908
▁(1	-5909
생을	-5910
▁준다	-5911
▁나아	-5912
▁드릴	-5913
▁사이에서	-5914
▁전재	-5915
▁걸로	-5916
발을	-5917
2018	-5918
▁쾌	-5919
하므로	-5920
▁핸드	-5921
ential	-5922
체는	-5923
▁계약을	-5924
▁상당한	-5925
▁노하우	-5926
식과	-5927
▁운영하고	-5928
▁function	-5929
▁소화	-5930
타이	-5931
▁시작으로	-5932
▁작품을	-5933
▁non	-5934
석이	-5935
39	-5936
든가	-5937
▁보일	-5938
▁개설	-5939
▁상위	-5940
▁면역	-5941
▁아니지만	-5942
▁열리는	-5943
tics	-5944
'(	-5945
▁모니터링	-5946
▁종류의	-5947
여야	-5948
▁친절	-5949
개로	-5950
▁연예	-5951
포트	-5952
▁부작용	-5953
선에	-5954
려야	-5955
해지고	-5956
▁권리	-5957
The	-5958
ines	-5959
▁출처	-5960
.12	-5961
▁정보가	-5962
▁반품	-5963
레이션	-5964
▁절차를	-5965
oint	-5966
하겠다고	-5967
▁굳이	-5968
ron	-5969
▁이탈리아	-5970
▁압박	-5971
▁장점	-5972
명과	-5973
으므로	-5974
▁데뷔	-5975
까지도	-5976
▁대화를	-5977
▁조용	-5978
▁그곳	-5979
▁위의	-5980
▁식물	-5981
▁계좌	-5982
연구소	-5983
▁말했습니다	-5984
보장	-5985
▁발표했다	-5986
▁진료	-5987
▁공포	-5988
▁토토	-5989
▁상업	-5990
▁도달	-5991
▁높다	-5992
산화	-5993
▁조사를	-5994
호텔	-5995
▁균형	-5996
▁37	-5997
▁수수료	-5998
▁when	-5999
▁아프리카	-6000
▁반려	-6001
중국	-6002
와서	-6003
▁안심	-6004
▁유전	-6005
▁선고	-6006
▁포트	-6007
.03	-6008
par	-6009
▁올바른	-6010
▁인재	-6011
월까지	-6012
▁만날	-6013
▁매장	-6014
▁로그인	-6015
▁오르	-6016
▁바이오	-6017
▁입주	-6018
▁찾기	-6019
▁수강	-6020
▁through	-6021
▁친구들과	-6022
▁쓰레	-6023
▁그럼에도	-6024
▁원내	-6025
기획	-6026
박한	-6027
▁주지	-6028
▲▲	-6029
ties	-6030
▁상장	-6031
술을	-6032
▁옛날	-6033
▁드는	-6034
▁인테	-6035
집을	-6036
스에서	-6037
US	-6038
-7	-6039
▁옮겨	-6040
▁속도	-6041
▁400	-6042
▁존중	-6043
▁머물	-6044
▁연구를	-6045
rop	-6046
▁`	-6047
▁선진	-6048
▁맛있는	-6049
안내	-6050
▁well	-6051
▁멸	-6052
▁일이다	-6053
기관의	-6054
▁돌파	-6055
▁느끼는	-6056
49	-6057
▁생겼	-6058
▁단백	-6059
▁가공	-6060
etwork	-6061
요금	-6062
▁단순한	-6063
▁딜	-6064
/0	-6065
▁변환	-6066
▁그중	-6067
PG	-6068
현지	-6069
▁관절	-6070
▁질문에	-6071
▁파티	-6072
▁cur	-6073
ited	-6074
지며	-6075
▁이내에	-6076
되었고	-6077
파이	-6078
▁활용할	-6079
▁핑	-6080
▁아니냐	-6081
▁휴대폰	-6082
▁comple	-6083
▁보며	-6084
▁전주	-6085
여성	-6086
마저	-6087
건의	-6088
격한	-6089
▁char	-6090
▁흔히	-6091
▁하하	-6092
▁보유하고	-6093
▁소리를	-6094
▁선도	-6095
ities	-6096
▁가질	-6097
법의	-6098
▁number	-6099
▁왼쪽	-6100
방향	-6101
▁2023	-6102
요한	-6103
▁수신	-6104
▁추세	-6105
▁3,	-6106
ences	-6107
혁신	-6108
▁성적	-6109
▁성장을	-6110
▁그것도	-6111
인터넷	-6112
.04	-6113
▁디스플레이	-6114
▁죽음	-6115
▁브라	-6116
▁이메일	-6117
▁제품이	-6118
▁연관	-6119
▁새누리	-6120
▁As	-6121
▁마주	-6122
▁득	-6123
▁주어	-6124
▁보급	-6125
▁맞춤형	-6126
▁취급	-6127
확인	-6128
▁프레임	-6129
▁사기	-6130
▁%	-6131
책임	-6132
봉사	-6133
▁메시지를	-6134
▁충돌	-6135
▁발전을	-6136
▁캘	-6137
수한	-6138
▁추출	-6139
46	-6140
▁없었	-6141
▁채팅	-6142
▁나타난	-6143
(2	-6144
▁All	-6145
▁핫	-6146
베이스	-6147
▁마이크로	-6148
▁들어오	-6149
닷컴	-6150
ey	-6151
▁사장	-6152
▁필요할	-6153
▁학생들이	-6154
▁48	-6155
▁매입	-6156
▁카테고	-6157
▁붉	-6158
▁옆에	-6159
▁최소화	-6160
▁콩	-6161
라우저	-6162
미나	-6163
▁기술이	-6164
▁진화	-6165
▁뼈	-6166
,,	-6167
▁정해	-6168
시키기	-6169
▁되어야	-6170
자도	-6171
▁기름	-6172
▁kn	-6173
▁의해서	-6174
했으나	-6175
▁전망이다	-6176
▁세계에서	-6177
▁휴가	-6178
▁끓	-6179
aw	-6180
▁보고서	-6181
▁진정	-6182
▁대학생	-6183
▁마음으로	-6184
▁응원	-6185
ages	-6186
▁의하여	-6187
▁def	-6188
ject	-6189
▁입을	-6190
▁예쁘	-6191
연구원	-6192
프를	-6193
진은	-6194
공단	-6195
▁훼손	-6196
▁적합한	-6197
전쟁	-6198
▁읽고	-6199
비의	-6200
▁준비를	-6201
하셨습니다	-6202
▁자리에	-6203
업무	-6204
▁조기	-6205
▁바카라	-6206
하지는	-6207
이랑	-6208
▁분노	-6209
▁어찌	-6210
its	-6211
▁떨어진	-6212
▁다들	-6213
▁att	-6214
▁하니	-6215
In	-6216
▁하도록	-6217
▁전원	-6218
▁유효	-6219
▁measure	-6220
▁내용에	-6221
▁즐기는	-6222
▁몽	-6223
▁챔	-6224
▁없애	-6225
▁기준을	-6226
cord	-6227
으신	-6228
▁20%	-6229
▁출입	-6230
스트를	-6231
.08	-6232
▁쪽으로	-6233
▁맹	-6234
현재	-6235
▁유엔	-6236
▁most	-6237
▁호주	-6238
하였으며	-6239
▁수학	-6240
▁최초의	-6241
▁도쿄	-6242
ma	-6243
쇼핑	-6244
ause	-6245
▁어쨌든	-6246
나마	-6247
▁눈이	-6248
TE	-6249
▁경로	-6250
▁캐나다	-6251
▁고등학교	-6252
이와	-6253
금리	-6254
▁ㆍ	-6255
유를	-6256
▁이용하실	-6257
▁수석	-6258
▁지하철	-6259
▁의견이	-6260
32	-6261
마자	-6262
▁일하는	-6263
▁시내	-6264
▁토지	-6265
비에	-6266
▁bec	-6267
▁사업에	-6268
▁보자	-6269
폭력	-6270
▁즐겨	-6271
▁떼	-6272
났습니다	-6273
▁출력	-6274
▁소개해	-6275
감과	-6276
▁축하	-6277
마스	-6278
▁끊임없이	-6279
▁혈액	-6280
보증	-6281
▁변호사	-6282
▁진행하고	-6283
▁깜	-6284
대전	-6285
▁당부	-6286
▁하나님을	-6287
-8	-6288
▁듯한	-6289
▁물류	-6290
ee	-6291
.07	-6292
생산	-6293
▁비대	-6294
▁제주도	-6295
▁es	-6296
▁풍부한	-6297
▁부서	-6298
▁포스팅	-6299
▁꿀	-6300
▁팩	-6301
▁7.	-6302
▁무한	-6303
▁손상	-6304
▁즐거운	-6305
▁일찍	-6306
어져	-6307
▁행사를	-6308
▁found	-6309
▁Sh	-6310
▁타입	-6311
▁나면	-6312
일간	-6313
TA	-6314
현대	-6315
▁음료	-6316
▁입증	-6317
된다는	-6318
▁다를	-6319
▁담긴	-6320
▁이달	-6321
▁제외한	-6322
▁흉	-6323
.06	-6324
▁있겠	-6325
▁아르	-6326
ane	-6327
▁곁	-6328
▁종사	-6329
▁무엇인지	-6330
▁논문	-6331
▁논란이	-6332
▁교사	-6333
▁197	-6334
▁붕	-6335
실한	-6336
▁납부	-6337
▁돋	-6338
▁문제로	-6339
▁소식	-6340
▁유행	-6341
▁교류	-6342
▁간에	-6343
▁으	-6344
이로	-6345
▁개입	-6346
soft	-6347
▁까지	-6348
▁쇼핑몰	-6349
▁낚	-6350
▁loc	-6351
▁Windows	-6352
.09	-6353
▁sk	-6354
▁함유	-6355
▁닿	-6356
재산	-6357
▁위에서	-6358
▁사람들과	-6359
▁최근에	-6360
▁기자회	-6361
학습	-6362
▁현상	-6363
▁아이가	-6364
▁그래픽	-6365
튜디오	-6366
컷뉴스	-6367
▁연주	-6368
액은	-6369
▁그리스도	-6370
▁무려	-6371
▁제약	-6372
▁아무래도	-6373
▁→	-6374
▁켜	-6375
▁성분	-6376
▁had	-6377
선으로	-6378
isk	-6379
▁위탁	-6380
▁찌	-6381
▁최우	-6382
▁이해할	-6383
려요	-6384
▁지닌	-6385
케어	-6386
▁그렇다고	-6387
▁유대	-6388
▁교과	-6389
신고	-6390
▁줄어	-6391
예산	-6392
▁화장품	-6393
메이션	-6394
것이	-6395
▁긴장	-6396
▁prote	-6397
바이러스	-6398
▁했어요	-6399
▁형사	-6400
일리	-6401
▁매각	-6402
▁현재는	-6403
▁바이러스	-6404
▁공지	-6405
건이	-6406
34	-6407
▁based	-6408
만원을	-6409
▁입찰	-6410
요소	-6411
▁자리에서	-6412
▁지표	-6413
▁여부	-6414
▁they	-6415
▁Go	-6416
▁이유를	-6417
▁App	-6418
▁재활	-6419
▁사용을	-6420
▁부드럽	-6421
ick	-6422
▁갖추고	-6423
에서만	-6424
로스	-6425
▁who	-6426
▁스트레스	-6427
▁가수	-6428
▁업그레이	-6429
ty	-6430
▁반대로	-6431
▁무릎	-6432
계에	-6433
▁국가의	-6434
▁이상을	-6435
▁아마도	-6436
▁각각의	-6437
▁영광	-6438
▁유출	-6439
▁bl	-6440
님과	-6441
▁말에	-6442
▁주최	-6443
:5	-6444
▁ㅋㅋ	-6445
▁제공됩니다	-6446
▁2004	-6447
▁영혼	-6448
▁장난	-6449
to	-6450
▁시정	-6451
해질	-6452
된다고	-6453
▁추적	-6454
양의	-6455
▁후에는	-6456
▁법을	-6457
ute	-6458
▁아무것도	-6459
▁기쁨	-6460
▁레벨	-6461
▁사회의	-6462
▁dep	-6463
베이	-6464
▁발송	-6465
▁결과는	-6466
▁수영장	-6467
▁들면	-6468
▁studies	-6469
▁옳	-6470
▁원자	-6471
▁다리	-6472
▁시장이	-6473
▁무너	-6474
▁놀라운	-6475
▁시공	-6476
▁하나를	-6477
동이	-6478
▁마침	-6479
▁받아야	-6480
▁폐지	-6481
▁좋겠다	-6482
▁손에	-6483
▁비용이	-6484
▁치열	-6485
▁import	-6486
대화	-6487
▁왔습니다	-6488
▁부터	-6489
미를	-6490
▁경북	-6491
▁못해	-6492
▁설득	-6493
br	-6494
****	-6495
▁이번에는	-6496
▁애완	-6497
▁맑	-6498
▁상임	-6499
▁얻은	-6500
▁채권	-6501
▁하였	-6502
▁룸	-6503
▁mon	-6504
로도	-6505
▁출범	-6506
▁화이트	-6507
▁들려	-6508
oy	-6509
▁③	-6510
▁깨달	-6511
▁사전에	-6512
▁인스타	-6513
▁아닐까	-6514
▁떨어져	-6515
opy	-6516
eng	-6517
-19	-6518
소비	-6519
land	-6520
▁몸이	-6521
▁사용하지	-6522
lement	-6523
행위	-6524
66	-6525
▁법정	-6526
▁과제	-6527
끼리	-6528
공개	-6529
▁맛이	-6530
▁30%	-6531
▁민감	-6532
▁먹어	-6533
▁횡	-6534
보며	-6535
▁구간	-6536
▁앱을	-6537
졌고	-6538
▁수도권	-6539
전에서	-6540
▁소중한	-6541
▁법령	-6542
▁하거나	-6543
▁비교적	-6544
▁year	-6545
▁곳으로	-6546
년생	-6547
▁전세계	-6548
▁역대	-6549
▁크다	-6550
전한	-6551
노컷뉴스	-6552
▁팁	-6553
▁신분	-6554
▁끄	-6555
▁주시고	-6556
▁폐기	-6557
▁매니	-6558
▁부채	-6559
▁미만	-6560
▁오직	-6561
▁셀프	-6562
▁정착	-6563
▁rem	-6564
구매	-6565
▁탁월	-6566
▁보임	-6567
ator	-6568
tig	-6569
제공	-6570
기록	-6571
▁hy	-6572
밀한	-6573
▁일부개정법률	-6574
▁프린	-6575
ness	-6576
장치	-6577
아주경제	-6578
▁research	-6579
▁폰	-6580
▁중고	-6581
되도록	-6582
▁편성	-6583
▁널리	-6584
▁전세	-6585
▁정도가	-6586
▁똑같은	-6587
▁물이	-6588
2017	-6589
구청	-6590
▁은혜	-6591
▁조항	-6592
▁축소	-6593
▁인쇄	-6594
aterial	-6595
포르	-6596
▁건데	-6597
▁의원이	-6598
▁가스	-6599
▁associ	-6600
▁소녀	-6601
▁르	-6602
▁반응을	-6603
오오	-6604
▁비율	-6605
▁국회의원	-6606
연히	-6607
▁모듈	-6608
▁39	-6609
▁금속	-6610
▁말로	-6611
면의	-6612
상에서	-6613
론을	-6614
duced	-6615
▁treatment	-6616
▁elec	-6617
▁정도는	-6618
▁픽	-6619
▁우울	-6620
▁쟁	-6621
▁자유롭게	-6622
▁나가는	-6623
▁윈도우	-6624
▁초청	-6625
▁복용	-6626
47	-6627
▁직후	-6628
▁서비스가	-6629
ateg	-6630
▁기원	-6631
▁지식을	-6632
▁그렇지만	-6633
부터는	-6634
▁컨트롤	-6635
▁유용	-6636
):	-6637
▁서서	-6638
▁쿠폰	-6639
▁하던	-6640
▁당초	-6641
SS	-6642
▁들어간	-6643
▁어떨	-6644
라이언	-6645
▁대상이	-6646
관과	-6647
▁베스트	-6648
선은	-6649
체험	-6650
▁이자	-6651
이한	-6652
▁자기가	-6653
라스틱	-6654
▁사람과	-6655
▁during	-6656
▁박사	-6657
▁생각보다	-6658
▁틈	-6659
icrosoft	-6660
님께	-6661
▁단기	-6662
▁거대한	-6663
▁생각할	-6664
▁야구	-6665
▁구역	-6666
되었으며	-6667
▁예외	-6668
▁requ	-6669
▁할머니	-6670
▁민주주의	-6671
rent	-6672
정과	-6673
자격	-6674
▁간호	-6675
대와	-6676
▁에스	-6677
▁닦	-6678
▁어른	-6679
▁뿐이다	-6680
▁싫어	-6681
▁춘	-6682
por	-6683
▁김영	-6684
▁매달	-6685
OP	-6686
▁답변을	-6687
지금	-6688
▁본인이	-6689
기사	-6690
▁유사한	-6691
▁부인	-6692
▁곳을	-6693
▁커버	-6694
▁prog	-6695
이라든지	-6696
▁이름이	-6697
▁방향을	-6698
▁노후	-6699
다시	-6700
▁성남	-6701
▁indic	-6702
짜리	-6703
▁안전하게	-6704
▁신종	-6705
결제	-6706
▁참고로	-6707
.5%	-6708
▁입학	-6709
gan	-6710
락을	-6711
렀다	-6712
▁맘	-6713
▁온도	-6714
▁낮아	-6715
▁입금	-6716
▁사업이	-6717
▁dem	-6718
▁120	-6719
하죠	-6720
▁고객을	-6721
음에도	-6722
▁잉	-6723
▁건너	-6724
▁급여	-6725
▁부착	-6726
조는	-6727
▁손가락	-6728
▁들이	-6729
▁여기는	-6730
▁Ar	-6731
▁고위	-6732
▁사건을	-6733
▁당일	-6734
소리	-6735
▁주방	-6736
주기	-6737
아리	-6738
즈를	-6739
피언	-6740
▁철학	-6741
▁뒤로	-6742
▁부정적인	-6743
▁시간은	-6744
▁cr	-6745
테인	-6746
▁대폭	-6747
▁영화를	-6748
▁느꼈	-6749
▁객관	-6750
▁일치	-6751
▁알아야	-6752
rel	-6753
▁끝난	-6754
▁사회복지	-6755
EL	-6756
▁검은	-6757
▁공직	-6758
▁간단하게	-6759
▁유입	-6760
red	-6761
▁잎	-6762
(19	-6763
수익	-6764
▁하려고	-6765
▁struct	-6766
전은	-6767
▁확인해	-6768
▁삼성전	-6769
▁생길	-6770
소프트	-6771
▁되었고	-6772
▁모른다	-6773
▁채워	-6774
▁보낸	-6775
▁이하의	-6776
▁main	-6777
▁하겠다	-6778
▁안보	-6779
▁할지	-6780
▁identi	-6781
▁낫	-6782
물질	-6783
▁것임	-6784
▁공용	-6785
▁impro	-6786
▁크고	-6787
선수	-6788
놓은	-6789
▁65	-6790
▁아름다	-6791
마켓	-6792
급여	-6793
▁기분이	-6794
기본	-6795
▁(1)	-6796
▁의뢰	-6797
▁some	-6798
▁비밀번호	-6799
▁후보는	-6800
▁개인적으로	-6801
▁투어	-6802
▁젖	-6803
▁느낀	-6804
야말로	-6805
▁리그	-6806
▁필요하다고	-6807
▁차를	-6808
▁그날	-6809
미술	-6810
▁있었지만	-6811
▁징역	-6812
▁컨텐츠	-6813
▁결과에	-6814
▁자치	-6815
▁이민	-6816
sh	-6817
개선	-6818
▁선사	-6819
▁방사	-6820
▁지혜	-6821
▁당첨	-6822
(0	-6823
▁국내외	-6824
▁뭐가	-6825
▁부담을	-6826
tal	-6827
▁02	-6828
▁퇴근	-6829
▁부활	-6830
▁유료	-6831
▁장르	-6832
위에서	-6833
금지	-6834
크를	-6835
▁bi	-6836
다리	-6837
해가	-6838
▁Cl	-6839
▁셈이다	-6840
▁개편	-6841
▁것이었다	-6842
▁큐	-6843
▁하신	-6844
▁누적	-6845
▁것이라	-6846
▁축제	-6847
양을	-6848
ics	-6849
▁3)	-6850
▁아웃	-6851
ank	-6852
▁갔다	-6853
▁정식	-6854
▁비싸	-6855
▁포함된	-6856
▁design	-6857
!"	-6858
하기가	-6859
▁얇	-6860
▁시대에	-6861
올림픽	-6862
▁투쟁	-6863
▁여성의	-6864
▁비트코	-6865
▁주행	-6866
UR	-6867
▁점심	-6868
▁맞지	-6869
amet	-6870
▁택배	-6871
▁즐겁	-6872
▁report	-6873
▁넘어가	-6874
▁중심의	-6875
ough	-6876
▁디자이너	-6877
▁u	-6878
▁경기를	-6879
▁관계가	-6880
osis	-6881
▁대학교	-6882
▁금리	-6883
========	-6884
▁의식	-6885
▁음성	-6886
▁취임	-6887
▁통증	-6888
▁지능	-6889
▁특성을	-6890
▁붙여	-6891
▁편하게	-6892
카페	-6893
형이	-6894
▁충남	-6895
▁없으면	-6896
▁그렇기	-6897
직을	-6898
▁충북	-6899
▁consider	-6900
중인	-6901
▁더해	-6902
▁health	-6903
▁화재	-6904
르신	-6905
▁시작된	-6906
tro	-6907
▁말입니다	-6908
bs	-6909
이게	-6910
▁전파	-6911
▁비가	-6912
▁허가	-6913
▁경계	-6914
지사	-6915
▁Un	-6916
SD	-6917
비로	-6918
▁말씀하신	-6919
▁시범	-6920
모를	-6921
▁겪고	-6922
▁생물	-6923
▁2003	-6924
▁정보는	-6925
▁가속	-6926
▁드리고	-6927
공업	-6928
▁운행	-6929
▁class	-6930
68	-6931
▁흡수	-6932
▁복귀	-6933
▁적어	-6934
net	-6935
▁성취	-6936
하기를	-6937
face	-6938
▁소식을	-6939
▁선택한	-6940
▁독자	-6941
형의	-6942
화점	-6943
▁선박	-6944
put	-6945
▁가격을	-6946
▁때부터	-6947
▁55	-6948
토록	-6949
▁전체적으로	-6950
드리고	-6951
▁equ	-6952
▁책은	-6953
▁…	-6954
▁있는가	-6955
dro	-6956
ination	-6957
나의	-6958
▁며칠	-6959
▁이름으로	-6960
쉽게	-6961
▁것이죠	-6962
▁손님	-6963
▁엘리	-6964
시즌	-6965
▁어려울	-6966
▁위치를	-6967
▁나섰다	-6968
▁본질	-6969
일과	-6970
▁음악을	-6971
▁보내는	-6972
마를	-6973
리스트	-6974
아의	-6975
▁ID	-6976
▁연방	-6977
▁need	-6978
광고	-6979
▁그러다	-6980
▁처음에는	-6981
색을	-6982
▁예고	-6983
되거나	-6984
line	-6985
▁본인의	-6986
▁aut	-6987
▁1/	-6988
트와	-6989
▁입장에서	-6990
],	-6991
동에	-6992
업소	-6993
▁미칠	-6994
▁효과적인	-6995
▁요구하는	-6996
디자인	-6997
▁뮤지	-6998
orld	-6999
▁방어	-7000
▁애플리케이션	-7001
the	-7002
PU	-7003
▁배려	-7004
임금	-7005
▁세계적인	-7006
▁지방자치단체	-7007
.02	-7008
▁특별히	-7009
▁않아요	-7010
ogle	-7011
생활을	-7012
▁내게	-7013
▁이해하고	-7014
면으로	-7015
▁스토리	-7016
▁low	-7017
▁향한	-7018
▁강아	-7019
▁구성되어	-7020
페이	-7021
▁사이트를	-7022
▁내세	-7023
았어요	-7024
▁신중	-7025
▁오프라인	-7026
하는지	-7027
▁요약	-7028
▁만들었다	-7029
매를	-7030
최근	-7031
회계	-7032
▁낯	-7033
▁tra	-7034
화학	-7035
▁cal	-7036
아니	-7037
ann	-7038
▁건립	-7039
▁세계를	-7040
▁컨설팅	-7041
(?)	-7042
▁상처	-7043
들에게는	-7044
추가	-7045
▁ins	-7046
▁모으	-7047
▁자는	-7048
▁요금이	-7049
ights	-7050
:1	-7051
았을	-7052
▁Co	-7053
▁상반기	-7054
▁확인하고	-7055
▁예정입니다	-7056
▁character	-7057
▁악화	-7058
▁아래와	-7059
▁세월호	-7060
▁지향	-7061
▁아무도	-7062
란드	-7063
▁경우에도	-7064
▁?	-7065
경쟁	-7066
▁]	-7067
▁밝힌	-7068
▁pe	-7069
▁본격적으로	-7070
▁쫓	-7071
서로	-7072
▁밟	-7073
▁옷을	-7074
▁하였습니다	-7075
▁하는지	-7076
▁주십시오	-7077
▁않으며	-7078
▁스티	-7079
▁때에	-7080
시부터	-7081
▁감정을	-7082
지자	-7083
▁신기	-7084
▁헤드	-7085
근로	-7086
▁남녀	-7087
말을	-7088
▁머리를	-7089
▁수령	-7090
▁높이는	-7091
▁관련해서	-7092
재정	-7093
음악	-7094
▁선배	-7095
▁골목	-7096
▁동생	-7097
▁수리	-7098
가구	-7099
로서의	-7100
▁effect	-7101
심사	-7102
▁필요로	-7103
▁예상된다	-7104
▁봐도	-7105
▁초래	-7106
▁특유의	-7107
▁심장	-7108
제와	-7109
▁내일	-7110
▁사이버	-7111
▁평범	-7112
▁아래의	-7113
등의	-7114
▁지시	-7115
▁그림을	-7116
▁캠핑	-7117
▁종이	-7118
복을	-7119
▁거라고	-7120
▁내내	-7121
▁유동	-7122
▁현재까지	-7123
▁갖게	-7124
urther	-7125
▁브라우저	-7126
▁언제든지	-7127
▁수준으로	-7128
▁이상으로	-7129
▁아기	-7130
▁태풍	-7131
▁폐쇄	-7132
▁유지하는	-7133
▁혼합	-7134
▁매수	-7135
▁모델을	-7136
▁최근에는	-7137
▁소상공	-7138
▁시사	-7139
하라고	-7140
▁게이	-7141
▁연애	-7142
조가	-7143
▁쭉	-7144
부문	-7145
▁1,000	-7146
▁저의	-7147
▁지자체	-7148
hib	-7149
▁시행령	-7150
▁태국	-7151
GB	-7152
▁임명	-7153
▁However	-7154
▁해상	-7155
사항을	-7156
▁미사	-7157
▁언니	-7158
▁겉	-7159
▁저희는	-7160
위원회는	-7161
▁determ	-7162
포는	-7163
▁대표발의	-7164
▁생기는	-7165
후보	-7166
▁인하여	-7167
▁가난	-7168
▁한마디	-7169
▁지휘	-7170
사실	-7171
ews	-7172
▁듣는	-7173
▁입은	-7174
300	-7175
치에	-7176
적한	-7177
에서부터	-7178
▁색깔	-7179
▁Sc	-7180
3,	-7181
계층	-7182
▁아우	-7183
▁◆	-7184
▁배당	-7185
대체	-7186
▁플래	-7187
▁협업	-7188
▁단어	-7189
▁가능하며	-7190
고속	-7191
위원회의	-7192
▁about	-7193
ogen	-7194
▁무서	-7195
▁문학	-7196
▁얼굴을	-7197
▁보게	-7198
시켰다	-7199
▁선임	-7200
▁손실	-7201
▁당뇨	-7202
청소년	-7203
▁강원도	-7204
5)	-7205
▁말하고	-7206
▁분석을	-7207
인권	-7208
▁민원	-7209
▁얻고	-7210
미래	-7211
▁거지	-7212
용으로	-7213
재생	-7214
▁없었던	-7215
atis	-7216
기만	-7217
▁안드로	-7218
▁식사를	-7219
▁미세먼	-7220
르크	-7221
▁등록된	-7222
▁펴	-7223
▁conf	-7224
▁건강을	-7225
▁일어난	-7226
클럽	-7227
▁제외하고	-7228
▁때로는	-7229
▁타임	-7230
▁담고	-7231
▁플레이어	-7232
▁알고리즘	-7233
▁스트레스를	-7234
CO	-7235
무역	-7236
▁소중	-7237
▁공공기관	-7238
▁three	-7239
▁출산	-7240
ife	-7241
▁퇴직	-7242
▁엠	-7243
냐고	-7244
주시면	-7245
▁깨닫	-7246
▁감독은	-7247
IA	-7248
yt	-7249
시길	-7250
ike	-7251
▁멜	-7252
▁LED	-7253
심한	-7254
▁고유	-7255
▁경주	-7256
방에	-7257
▁ed	-7258
▁않는다는	-7259
뱅크	-7260
진의	-7261
▁맛을	-7262
▁물건을	-7263
▁나타나는	-7264
▁공약	-7265
▁가벼운	-7266
▁이렇	-7267
해온	-7268
대구	-7269
▁목소리를	-7270
▁마시고	-7271
▁시점	-7272
▁이해를	-7273
서와	-7274
▁없으며	-7275
▁information	-7276
ugg	-7277
▁심한	-7278
라든지	-7279
▁쉽고	-7280
▁해제	-7281
▁오브	-7282
▁무언	-7283
▁데스크	-7284
리핀	-7285
alu	-7286
▁매월	-7287
민의	-7288
하우스	-7289
▁기기	-7290
세로	-7291
.1%	-7292
▁쏘	-7293
▁obtain	-7294
▁재능	-7295
▁전화를	-7296
▁CD	-7297
세는	-7298
▁대사	-7299
▁외환	-7300
▁비록	-7301
▁분야에	-7302
▁좋겠습니다	-7303
▁얻어	-7304
▁제재	-7305
하더라도	-7306
▁말한	-7307
▁세계의	-7308
▁저지	-7309
▁2002	-7310
가루	-7311
에이	-7312
iron	-7313
▁지금의	-7314
성한	-7315
▁단축	-7316
파일	-7317
월드	-7318
▁녹색	-7319
min	-7320
예약	-7321
관계를	-7322
▁어쩔	-7323
▁수소	-7324
▁아파	-7325
▁텐데	-7326
▁전부터	-7327
CD	-7328
▁데이	-7329
그런	-7330
호를	-7331
▁시대의	-7332
▁시키	-7333
▁이해가	-7334
▁올린	-7335
▁부드러운	-7336
▁있을까요	-7337
▁호소	-7338
▁첨단	-7339
▁개요	-7340
▁고대	-7341
▁살펴보면	-7342
주면	-7343
▁점유	-7344
▁강하게	-7345
▁your	-7346
로가	-7347
라운드	-7348
▁미친	-7349
▁태그	-7350
토토	-7351
▁처음부터	-7352
제작	-7353
제주	-7354
▁청약	-7355
▁tem	-7356
▁초등학교	-7357
▁이것도	-7358
▁메이저	-7359
▁운영을	-7360
▁고령	-7361
▁사법	-7362
▁에너지를	-7363
▁나눔	-7364
▁차가	-7365
▁정원	-7366
led	-7367
봤다	-7368
cept	-7369
름이	-7370
인도	-7371
▁줬	-7372
▁김정	-7373
▁시작할	-7374
안녕	-7375
분들	-7376
▁랜	-7377
운용	-7378
▁paper	-7379
▁이틀	-7380
▁KBS	-7381
▁모르겠	-7382
사건	-7383
▁수급	-7384
ental	-7385
▁샀	-7386
시까지	-7387
▁일부개정법률안	-7388
▁anti	-7389
고의	-7390
▁크림	-7391
▁스크린	-7392
▁z	-7393
▁go	-7394
▁사업은	-7395
ten	-7396
사인	-7397
▁원격	-7398
▁구경	-7399
자본	-7400
▁검사를	-7401
▁멈추	-7402
▁제도를	-7403
▁매주	-7404
▁개발을	-7405
미가	-7406
▁했다고	-7407
▁인테리어	-7408
이든	-7409
▁얻는	-7410
절을	-7411
르몬	-7412
평균	-7413
▁문화를	-7414
▁대여	-7415
▁관련이	-7416
▁주변에	-7417
▁experim	-7418
▁학부모	-7419
▁한반도	-7420
▁보겠습니다	-7421
북한	-7422
▁상품의	-7423
▁아니라는	-7424
▁의미합니다	-7425
▁설문	-7426
▁정해진	-7427
▁톤	-7428
▁명예훼손	-7429
▁지역사회	-7430
▁노트북	-7431
▁방침이다	-7432
▁There	-7433
▁규정을	-7434
하자면	-7435
go	-7436
▁춤	-7437
이므로	-7438
토리	-7439
▁정하는	-7440
▁합병	-7441
▁넥	-7442
판에	-7443
▁disc	-7444
▁어두	-7445
▁토대로	-7446
본다	-7447
▁대안	-7448
ade	-7449
▁게재	-7450
▁선출	-7451
▁의도	-7452
▁보유한	-7453
하십니까	-7454
tively	-7455
▁절감	-7456
어드	-7457
▁지상	-7458
▁와이	-7459
▁higher	-7460
일에는	-7461
위기	-7462
▁들을	-7463
▁이혼	-7464
▁if	-7465
MP	-7466
▁불교	-7467
ergy	-7468
▁세계적으로	-7469
▁철저히	-7470
▁살아가는	-7471
▁multi	-7472
▁인기가	-7473
▁Tr	-7474
▁행위를	-7475
▁샤워	-7476
▁진행할	-7477
▁사로	-7478
▁desc	-7479
▁필터	-7480
것은	-7481
▁end	-7482
례를	-7483
능력	-7484
▁의하면	-7485
▁5000	-7486
▁expression	-7487
▁바른	-7488
▁provid	-7489
출장만남	-7490
▁ser	-7491
▁리더십	-7492
▁한국에서	-7493
▁창작	-7494
▁조리	-7495
조사를	-7496
▁타당	-7497
▁플라스틱	-7498
▁속도를	-7499
코드	-7500
▁있거든요	-7501
6)	-7502
▁수요가	-7503
라의	-7504
app	-7505
▁이란	-7506
▁micro	-7507
일까요	-7508
▁사건이	-7509
호가	-7510
▁고기	-7511
▁농촌	-7512
▁낮추	-7513
▁네가	-7514
98	-7515
▁억제	-7516
mun	-7517
▁올해는	-7518
마크	-7519
▁예쁜	-7520
▁절약	-7521
인가요	-7522
▁모색	-7523
▁번째는	-7524
수사	-7525
▁다르다	-7526
▁아이를	-7527
▁부상	-7528
uman	-7529
적입니다	-7530
▁사용하기	-7531
gen	-7532
▁환경에	-7533
▁소리가	-7534
▁제품에	-7535
▁관점에서	-7536
▁해결할	-7537
▁증상이	-7538
▁트위터	-7539
치로	-7540
▁evalu	-7541
▁시작하는	-7542
▁흙	-7543
▁수면	-7544
▁꿈꾸	-7545
▁감지	-7546
▁아니라고	-7547
▁오늘의	-7548
집에서	-7549
ext	-7550
▁효율적인	-7551
▁통보	-7552
▁냉장고	-7553
▁신용카드	-7554
▁지내	-7555
▁함께하는	-7556
▁하반기	-7557
▁없게	-7558
▁땐	-7559
▁그들을	-7560
▁완벽하게	-7561
▁배제	-7562
▁릴	-7563
▁복사	-7564
▁높여	-7565
▁임원	-7566
▁통상	-7567
RO	-7568
▁고생	-7569
▁받기	-7570
자료를	-7571
ily	-7572
▁아이디어를	-7573
▁듀	-7574
▁De	-7575
▁업종	-7576
67	-7577
▁하루에	-7578
ull	-7579
▁ext	-7580
▁분산	-7581
▁기소	-7582
▁development	-7583
작업	-7584
▁현상이	-7585
▁여수	-7586
터테인	-7587
▁무관	-7588
▁명칭	-7589
ool	-7590
▁생각은	-7591
▁진행하는	-7592
▁조명	-7593
석은	-7594
▁놓은	-7595
▁고객에게	-7596
ience	-7597
▁곰	-7598
▁말이죠	-7599
신용	-7600
▁코리아	-7601
▁환자의	-7602
.’	-7603
▁pot	-7604
▁양도	-7605
▁프로젝트를	-7606
▁놀라	-7607
이지요	-7608
▁sit	-7609
▁가볍게	-7610
▁(2)	-7611
▁이른바	-7612
▁미국에서	-7613
▁출근	-7614
▁좌우	-7615
▁예배	-7616
▁구조를	-7617
감은	-7618
usion	-7619
▁역량	-7620
▁dise	-7621
▁천안	-7622
자들과	-7623
▁장관은	-7624
사들이	-7625
uss	-7626
▁표면	-7627
ware	-7628
▁상황이다	-7629
▁상환	-7630
▁성실	-7631
▁회사에	-7632
▁순환	-7633
▁되면서	-7634
95	-7635
우기	-7636
▁학술	-7637
▁마음의	-7638
▁워낙	-7639
▁find	-7640
▁비싼	-7641
▁규모가	-7642
▁IS	-7643
▁Figure	-7644
렸던	-7645
호와	-7646
▁기상	-7647
▁공간이	-7648
▁거는	-7649
▁주셨	-7650
▁전형	-7651
▁다수의	-7652
자연	-7653
렬한	-7654
▁말씀해	-7655
▁HD	-7656
▁뚫	-7657
▁이의	-7658
▁챔피언	-7659
국에서	-7660
ision	-7661
▁구비	-7662
▁움직임	-7663
좋은	-7664
▁손으로	-7665
▁초점을	-7666
▁성능을	-7667
▁받는다	-7668
▁체중	-7669
CP	-7670
elf	-7671
주년	-7672
64	-7673
▁참여하는	-7674
링을	-7675
담을	-7676
순환	-7677
▁잊지	-7678
▁찍어	-7679
주행	-7680
▁라이프	-7681
▁북한이	-7682
▁자살	-7683
▁소위	-7684
린이	-7685
금으로	-7686
목적	-7687
▁원내대표	-7688
▁일관	-7689
▁역량을	-7690
.2%	-7691
▁도덕	-7692
▁올랐다	-7693
▁지역을	-7694
▁나쁘	-7695
▁영업이익	-7696
▁간주	-7697
▁텍스트	-7698
▁가지는	-7699
▁가동	-7700
▁금액을	-7701
▁드디어	-7702
2021	-7703
▁나누어	-7704
디션	-7705
▁사례를	-7706
▁편안한	-7707
▁찾아가	-7708
▁pred	-7709
bl	-7710
▁점이다	-7711
이런	-7712
할수	-7713
▁페이	-7714
▁참여한	-7715
▁방문해	-7716
▁인스타그램	-7717
▁다이어트	-7718
▁항공편을	-7719
▁허리	-7720
▁could	-7721
현지시간	-7722
▁칸	-7723
▁기업은	-7724
▁물에	-7725
정보를	-7726
네시아	-7727
하에	-7728
▁위험을	-7729
▁용역	-7730
▁들어갈	-7731
▁하느	-7732
▁공부를	-7733
소송	-7734
▁텔레	-7735
▁이루어진	-7736
이라서	-7737
이었던	-7738
준비	-7739
duction	-7740
▁어르신	-7741
▁expl	-7742
작성	-7743
▁마치고	-7744
▁괜찮은	-7745
겠지	-7746
▁효과적으로	-7747
▁아름답	-7748
팀은	-7749
▁사업의	-7750
★★	-7751
▁자아	-7752
결을	-7753
▁적당	-7754
점과	-7755
echan	-7756
▁존재하는	-7757
하셔야	-7758
▁한계	-7759
▁말도	-7760
▁발의	-7761
▁참석한	-7762
▁||	-7763
리다	-7764
크라	-7765
:30	-7766
▁mat	-7767
▁실용	-7768
▁shown	-7769
▁rate	-7770
▁any	-7771
▁만약에	-7772
▁정한	-7773
▁빙	-7774
설을	-7775
▁프로모	-7776
재판	-7777
▁협상	-7778
▁죄송	-7779
▁경찰은	-7780
3.	-7781
FC	-7782
▁포항	-7783
▁실시간으로	-7784
MA	-7785
▁리조	-7786
▁유지하고	-7787
▁팝	-7788
한데	-7789
▁회사를	-7790
ML	-7791
▁귀여	-7792
▁즉각	-7793
▁라디오	-7794
▁하니까	-7795
enter	-7796
서도	-7797
▁공무	-7798
▁compared	-7799
▁부담이	-7800
▁몬	-7801
▁접종	-7802
▁은퇴	-7803
▁어려움	-7804
▁되며	-7805
▁세트	-7806
▁Kore	-7807
▁빨간	-7808
▁애니메이션	-7809
▁고민을	-7810
센트	-7811
▁압축	-7812
백을	-7813
조원	-7814
▁지니	-7815
▁서비스의	-7816
▁거래를	-7817
소로	-7818
▁시나	-7819
▁주력	-7820
▁않아서	-7821
▁알지	-7822
치기	-7823
신은	-7824
▁사업자	-7825
▁가맹	-7826
▁신청을	-7827
다란	-7828
▁전기차	-7829
▁메이크	-7830
▁중독	-7831
▁대북	-7832
▁못한다	-7833
▁몇몇	-7834
▁동원	-7835
▁족	-7836
▁여기에서	-7837
▁원인이	-7838
▁부부	-7839
800	-7840
바이오	-7841
플러스	-7842
▁효율적으로	-7843
▁실업	-7844
▁패널	-7845
▁포토	-7846
▁상태가	-7847
▁cap	-7848
▁만나는	-7849
▁없었습니다	-7850
된다면	-7851
▁수고	-7852
▁반발	-7853
▁신발	-7854
▁친구가	-7855
▁인간이	-7856
▁가리	-7857
뉴시스	-7858
▁런던	-7859
▁사용자의	-7860
▁KB	-7861
▁거리에	-7862
til	-7863
롭고	-7864
▁진행된	-7865
▁과정이	-7866
▁단속	-7867
▁창원	-7868
화하고	-7869
국인	-7870
▁600	-7871
▁누리	-7872
▁이명	-7873
▁주가	-7874
atory	-7875
▁권리를	-7876
▁스튜디오	-7877
▁위험이	-7878
900	-7879
우리는	-7880
▁!	-7881
▁44	-7882
▁proble	-7883
▁고려할	-7884
~2	-7885
▁고등	-7886
년도에	-7887
▁훈	-7888
실로	-7889
▁변화에	-7890
광역시	-7891
▁제고	-7892
agn	-7893
▁원이	-7894
▁삽입	-7895
세에	-7896
▁목숨	-7897
▁흐름을	-7898
▁MBC	-7899
▁약간의	-7900
순위	-7901
▁진행되는	-7902
바닥	-7903
mer	-7904
▁티켓	-7905
▁오디오	-7906
▁게임의	-7907
▁단위	-7908
▁대만	-7909
▁법안	-7910
▁기간이	-7911
▁내리	-7912
▁등도	-7913
▁안드로이드	-7914
▁이기	-7915
▁계란	-7916
에게도	-7917
▁가시	-7918
삼성	-7919
▁선택을	-7920
iter	-7921
▁업그레이드	-7922
▁없는데	-7923
▁기존에	-7924
▁증상	-7925
▁대표가	-7926
물과	-7927
▁관측	-7928
지않	-7929
▁포함하고	-7930
군을	-7931
되게	-7932
하기는	-7933
▁늘어난	-7934
▁path	-7935
▁인용	-7936
▁움직이는	-7937
인들	-7938
▁없다면	-7939
▁삼성전자	-7940
▁격려	-7941
▁수준을	-7942
▁날이	-7943
▁공원	-7944
▁공시	-7945
▁칭찬	-7946
▁가깝	-7947
▁고개를	-7948
▁캔	-7949
뉴얼	-7950
▁단단	-7951
ㅜㅜ	-7952
▁담보	-7953
▁연락처	-7954
▁당신을	-7955
저히	-7956
▁8.	-7957
▁한미	-7958
▁result	-7959
해지	-7960
▁담겨	-7961
▁발사	-7962
낸다	-7963
언론	-7964
▁미국과	-7965
담당	-7966
공부	-7967
▁아이콘	-7968
씨를	-7969
▁리스크	-7970
▁운송	-7971
▁신한	-7972
▁하다가	-7973
▁시기에	-7974
▁아니었다	-7975
▁증가하고	-7976
ption	-7977
▁환경에서	-7978
▁났	-7979
피해	-7980
▁◇	-7981
MC	-7982
▁프로그래	-7983
ward	-7984
▁구멍	-7985
마토	-7986
acy	-7987
ral	-7988
▁스프	-7989
타운	-7990
fied	-7991
▁포함하여	-7992
▁있잖아요	-7993
▁사우	-7994
▁사례가	-7995
▁해주는	-7996
▁즐깁니다	-7997
▁모르고	-7998
▁사로잡	-7999
▁등등	-8000
▁마시	-8001
▁많았다	-8002
▁관리하는	-8003
▁경향이	-8004
참여	-8005
▁밝은	-8006
▁셋째	-8007
ety	-8008
▁아티	-8009
▁떨어지는	-8010
▁전체를	-8011
있고	-8012
료가	-8013
▁여겨	-8014
분들이	-8015
카데	-8016
▁보건복지	-8017
ples	-8018
▁많지	-8019
▁집안	-8020
▁본격적인	-8021
▁커플	-8022
▁공인	-8023
▁차이를	-8024
RI	-8025
▁위대한	-8026
▁웅	-8027
▁사항이	-8028
인당	-8029
리포	-8030
▁공화	-8031
erap	-8032
▁나옵니다	-8033
▁된다면	-8034
기념	-8035
ulated	-8036
OC	-8037
▁선포	-8038
▁몰랐	-8039
▁처음에	-8040
▁시간과	-8041
▁다수	-8042
▁하나님은	-8043
▁샘플	-8044
▁포함해	-8045
itive	-8046
▁보너	-8047
▁위치에	-8048
▁붉은	-8049
▁되돌	-8050
▁정책에	-8051
수준	-8052
▁잭	-8053
▁개인적인	-8054
▁Wh	-8055
▁risk	-8056
▁먹으면	-8057
▁데이터베이스	-8058
▁이어질	-8059
억원으로	-8060
공급	-8061
▁지분	-8062
▁믿는	-8063
(7	-8064
▁고향	-8065
▁경우를	-8066
▁계정	-8067
▁피드	-8068
보다도	-8069
▁의지	-8070
▁dire	-8071
▁높이고	-8072
▁보다는	-8073
estig	-8074
시와	-8075
▁이벤트를	-8076
▁넘게	-8077
▁싱가	-8078
▁미국은	-8079
arge	-8080
▁같아서	-8081
호의	-8082
▁공익	-8083
고한	-8084
▁4,	-8085
▁모자	-8086
▁뿌리	-8087
▁일종의	-8088
▁총선	-8089
▁찰	-8090
혁명	-8091
▁한데	-8092
▁보여주고	-8093
▁대략	-8094
▁받았습니다	-8095
생명	-8096
▁addition	-8097
▁필리핀	-8098
▁레드	-8099
▁고려하여	-8100
▁나누는	-8101
▁협약	-8102
▁있으니까	-8103
▁끌고	-8104
벤처	-8105
설명	-8106
▁예산이	-8107
▁자라	-8108
round	-8109
▁집계	-8110
▁노력하고	-8111
▁자신에게	-8112
▁국토교통	-8113
▁말라	-8114
란히	-8115
▁【	-8116
que	-8117
▁줘	-8118
▁실질적인	-8119
▁보편	-8120
할지	-8121
박스	-8122
▁청주	-8123
평양	-8124
▁상속	-8125
▁빗	-8126
rad	-8127
▁한인	-8128
ross	-8129
!”	-8130
층의	-8131
▁oc	-8132
▁이슬	-8133
▁닮	-8134
▁시의	-8135
▁sugg	-8136
허가	-8137
▁소형	-8138
▁하는데요	-8139
▁개발한	-8140
▁정지	-8141
inical	-8142
▁내린	-8143
▁디자인을	-8144
▁첨부	-8145
▁파견	-8146
▁싶다면	-8147
▁건의	-8148
▁철도	-8149
창업	-8150
▁고려해	-8151
길이	-8152
▁한국에	-8153
▁답답	-8154
▁영웅	-8155
▁석유	-8156
바다	-8157
으로서의	-8158
tml	-8159
▁용인	-8160
ful	-8161
▁스킨	-8162
DP	-8163
재로	-8164
것을	-8165
장기	-8166
▁멍	-8167
▁정서	-8168
기반	-8169
▁저축	-8170
색이	-8171
▁도심	-8172
▁47	-8173
▁99	-8174
경이	-8175
vious	-8176
▁북미	-8177
마이	-8178
차피	-8179
▁경쟁력	-8180
▁바람직	-8181
agement	-8182
승을	-8183
▁경상	-8184
▁정규	-8185
az	-8186
이미	-8187
법으로	-8188
름을	-8189
▁material	-8190
▁정작	-8191
▁조달	-8192
▁미래에	-8193
▁필요하다는	-8194
▁단말	-8195
결정	-8196
▁case	-8197
▁벤처	-8198
▁융합	-8199
▁법칙	-8200
시간을	-8201
달라고	-8202
▁밝히	-8203
체로	-8204
▁노래를	-8205
▁만화	-8206
▁주주	-8207
▁포괄	-8208
▁소규모	-8209
▁꺼내	-8210
OT	-8211
해왔다	-8212
▁마세요	-8213
▁터치	-8214
았지만	-8215
비와	-8216
▁밀어	-8217
이고요	-8218
?’	-8219
▁시대를	-8220
▁49	-8221
▁prot	-8222
임대	-8223
점의	-8224
장애인	-8225
▁계기로	-8226
▁헬스	-8227
▁급증	-8228
▁활약	-8229
▁에어컨	-8230
재의	-8231
▁간이	-8232
▁월드컵	-8233
▁규정에	-8234
시장의	-8235
▁이어지는	-8236
▁그렇다	-8237
▁대우	-8238
▁보충	-8239
온다	-8240
▁인하	-8241
▁자체를	-8242
규칙	-8243
▁응급	-8244
▁신입	-8245
▁Microsoft	-8246
▁No	-8247
▁lim	-8248
▁코로나바이러스	-8249
▁스페인	-8250
▁거기서	-8251
▁어디에	-8252
lob	-8253
requ	-8254
바이스	-8255
▁46	-8256
▁시상	-8257
▁플러	-8258
▁생각하면	-8259
▁식별	-8260
2016	-8261
차로	-8262
▁Bl	-8263
▁오피스	-8264
▁재미있는	-8265
▁번째로	-8266
▁오버	-8267
▁important	-8268
프리	-8269
▁할까	-8270
▁펀드	-8271
▁폴더	-8272
▁시가	-8273
▁화성	-8274
▁예약을	-8275
▁모드	-8276
▁없도록	-8277
▁죽은	-8278
▁붓	-8279
▁존경	-8280
▁USB	-8281
▁Ph	-8282
▁세련	-8283
▁번에	-8284
▁카드를	-8285
시마	-8286
▁보인	-8287
viron	-8288
회생	-8289
▁동참	-8290
▁구원	-8291
▁일도	-8292
▁조건을	-8293
▁하나하나	-8294
매매	-8295
▁비전	-8296
레인	-8297
▁75	-8298
▁av	-8299
▁사용합니다	-8300
품질	-8301
통을	-8302
▁생각하지	-8303
▁보내고	-8304
▁ⓒ	-8305
▁장식	-8306
▁처방	-8307
합니까	-8308
▁갱	-8309
ery	-8310
▁오토	-8311
지니어	-8312
▁많아서	-8313
▁가기	-8314
만족	-8315
▁취재	-8316
▁경력	-8317
▁목적을	-8318
퍼런	-8319
▁읽는	-8320
▁홀로	-8321
▁기록을	-8322
▁론	-8323
▁기술의	-8324
▁부대	-8325
나이	-8326
▁3000	-8327
▁스펙	-8328
▁것인데	-8329
오프	-8330
▁도메	-8331
▁무리	-8332
▁소매	-8333
▁이르는	-8334
▁일정한	-8335
▁바꿀	-8336
▁실태	-8337
▁스탠	-8338
▁확신	-8339
▁grow	-8340
일반	-8341
▁싶어요	-8342
arm	-8343
41	-8344
구성	-8345
(10	-8346
▁아마존	-8347
▁더불어민주당	-8348
▁중의	-8349
▁어쩌면	-8350
▁드라이브	-8351
로지	-8352
▁while	-8353
웠던	-8354
▁추진하고	-8355
▁부분도	-8356
ilar	-8357
주신	-8358
해보세요	-8359
ash	-8360
▁새누리당	-8361
▁거친	-8362
▁솔직히	-8363
포를	-8364
연이	-8365
▁저희들	-8366
▁겹	-8367
▁개막	-8368
팅을	-8369
재료	-8370
▁자문	-8371
▁일어나는	-8372
▁대량	-8373
미는	-8374
터가	-8375
▁베이스	-8376
▁뒤집	-8377
인천	-8378
▁봤을	-8379
▁전후	-8380
▁금방	-8381
▁탄소	-8382
기업의	-8383
▁합리적인	-8384
점검	-8385
▁참여할	-8386
▁과도한	-8387
양이	-8388
펀드	-8389
▁스킬	-8390
협의회	-8391
계속	-8392
느라	-8393
▁DNA	-8394
▁프라이	-8395
▁턱	-8396
남도	-8397
▁미안	-8398
▁팽	-8399
▁vs	-8400
▁복구	-8401
선과	-8402
▁뭉	-8403
▁으로	-8404
▁회의를	-8405
▁그러니	-8406
차별	-8407
.|	-8408
주소	-8409
피아	-8410
▁메모리	-8411
가능한	-8412
스키	-8413
하라는	-8414
of	-8415
연대	-8416
▁광범	-8417
▁그들	-8418
▁나라의	-8419
▁연극	-8420
▁문제의	-8421
▁value	-8422
▁트랜	-8423
싱턴	-8424
▁예능	-8425
▁썰	-8426
강의	-8427
▁고객님	-8428
▁곱	-8429
▁느끼고	-8430
▁패키지	-8431
DA	-8432
▁쇠	-8433
▁sever	-8434
▁초등	-8435
▁09	-8436
▁이정	-8437
▁가격에	-8438
▁성공을	-8439
▁대표하는	-8440
거리는	-8441
▁관심과	-8442
였는데	-8443
▁자금을	-8444
▁무대	-8445
▁커다란	-8446
▁He	-8447
▁조립	-8448
▁출석	-8449
국내	-8450
▁우리나라의	-8451
▁보낼	-8452
▁입장에서는	-8453
▁사회에	-8454
▁정권	-8455
▁제공해	-8456
▁뻔	-8457
▁마라	-8458
▁should	-8459
있어	-8460
▁주식을	-8461
▁00	-8462
축구	-8463
▁하나씩	-8464
▁부적	-8465
나와	-8466
▁탑승	-8467
수원	-8468
?'	-8469
ek	-8470
주식	-8471
판이	-8472
▁Man	-8473
ectively	-8474
▁성공적으로	-8475
▁넘치는	-8476
▁지원하고	-8477
▁몰아	-8478
▁배울	-8479
캠퍼	-8480
▁그에게	-8481
▁investig	-8482
▁과정에	-8483
▁분은	-8484
▁콘서	-8485
▁prov	-8486
▁가격으로	-8487
청이	-8488
▁기업들이	-8489
▁마친	-8490
▁저를	-8491
▁무척	-8492
▁치킨	-8493
▁오늘도	-8494
▁만성	-8495
▁정말로	-8496
▁한화	-8497
▁광고를	-8498
주얼	-8499
▁달하는	-8500
▁On	-8501
▁포스트	-8502
pro	-8503
▁장학	-8504
▁권력	-8505
받지	-8506
▁다양하게	-8507
ups	-8508
ody	-8509
▁동남	-8510
▁닥	-8511
되는데	-8512
자로서	-8513
▁levels	-8514
▁암호화폐	-8515
▁로드	-8516
행사	-8517
▁order	-8518
▁테크	-8519
▁인사를	-8520
▁덩	-8521
UN	-8522
미널	-8523
row	-8524
▁않았던	-8525
라리	-8526
▁사용이	-8527
ograph	-8528
▁출마	-8529
▁고발	-8530
▁연봉	-8531
정상	-8532
▁부지	-8533
.3%	-8534
바람	-8535
있을	-8536
600	-8537
대문	-8538
▁감시	-8539
월에는	-8540
시간이	-8541
목이	-8542
▁활동에	-8543
-20	-8544
▁기반의	-8545
▁미국이	-8546
▁분할	-8547
▁거절	-8548
서비스를	-8549
SC	-8550
▁수행하는	-8551
▁휠	-8552
▁액션	-8553
▁않았지만	-8554
고용	-8555
▁인터페이스	-8556
▁poss	-8557
oss	-8558
▁셰	-8559
▁구성원	-8560
▁이르기	-8561
스피	-8562
▁총괄	-8563
TI	-8564
▁달에	-8565
▁일환	-8566
매일	-8567
버전	-8568
▁가려	-8569
품이	-8570
▁연료	-8571
▁1990	-8572
▁@	-8573
▁놀이	-8574
▁판매자	-8575
▁출간	-8576
▁경과	-8577
▁이주	-8578
기금	-8579
여자	-8580
plic	-8581
▁확실한	-8582
▁컸	-8583
▁플라	-8584
겨진	-8585
▁이성	-8586
▁막기	-8587
때문에	-8588
방지	-8589
스포	-8590
들이다	-8591
▁여러가지	-8592
▁calc	-8593
▁출전	-8594
▁increased	-8595
med	-8596
공학	-8597
▁해변	-8598
lear	-8599
▁코드를	-8600
▁시스템이	-8601
정신	-8602
▁경쟁력을	-8603
▁탭	-8604
ets	-8605
▁간담	-8606
▁녀	-8607
▁약물	-8608
일치	-8609
▁II	-8610
▁갖춰	-8611
대통령	-8612
▁말하면	-8613
▁범위를	-8614
▁볶	-8615
▁채무	-8616
▁단백질	-8617
▁후보가	-8618
▁묻는	-8619
인치	-8620
42	-8621
▁이상한	-8622
▁길게	-8623
▁기업을	-8624
▁selec	-8625
▁타이틀	-8626
▁due	-8627
도에서	-8628
97	-8629
▁단골	-8630
▁42	-8631
▁사진이	-8632
나고	-8633
▁않다는	-8634
▁의지를	-8635
▁소스	-8636
분간	-8637
▁서비스는	-8638
St	-8639
▁showed	-8640
▁감동	-8641
▁권고	-8642
보가	-8643
▁분들도	-8644
프는	-8645
▁데는	-8646
iew	-8647
▁비례	-8648
▁값을	-8649
ocial	-8650
분은	-8651
3%	-8652
▁복음	-8653
▁추석	-8654
▁수의	-8655
렉션	-8656
▁만일	-8657
▁고양이	-8658
▁사후	-8659
안녕하세요	-8660
▁주셔서	-8661
▁태어나	-8662
수산	-8663
▁허위	-8664
▁then	-8665
▁밖으로	-8666
▁율	-8667
me	-8668
소와	-8669
▁템	-8670
▁ques	-8671
▁블록체인	-8672
▁트리	-8673
교육을	-8674
었다는	-8675
▁과일	-8676
즈는	-8677
▁영원	-8678
▁파라	-8679
▁대장	-8680
▁상관없이	-8681
right	-8682
▁chang	-8683
▁여야	-8684
액의	-8685
▁network	-8686
배우	-8687
▁최적의	-8688
각을	-8689
▁몰입	-8690
▁여의	-8691
▁직면	-8692
▁빠진	-8693
들과의	-8694
▁대책을	-8695
밀하게	-8696
▁소소한	-8697
▁same	-8698
▁줄일	-8699
▁일주일	-8700
▁굽	-8701
추진	-8702
목록	-8703
▁마스터	-8704
oid	-8705
▁세무	-8706
러가	-8707
▁어려움이	-8708
시코	-8709
▁어차피	-8710
까지의	-8711
▁왜곡	-8712
▁증가한	-8713
계획을	-8714
▁빅데이터	-8715
▁붕괴	-8716
▁십자가	-8717
▁강의를	-8718
.00	-8719
▁아니야	-8720
▁있거나	-8721
미니	-8722
▁오고	-8723
▁시작합니다	-8724
▁관리자	-8725
▁시스템의	-8726
4,	-8727
▁pop	-8728
els	-8729
▁한층	-8730
▁Google	-8731
지수	-8732
만명	-8733
ier	-8734
▁mem	-8735
▁일부를	-8736
▁analy	-8737
▁학생들의	-8738
▁밑에	-8739
▁이용자	-8740
▁원의	-8741
▁distrib	-8742
RE	-8743
▁이곳은	-8744
▁인도네시아	-8745
▁결의	-8746
사례	-8747
▁그릇	-8748
▁장점이	-8749
▁사무실	-8750
사회의	-8751
▁맡은	-8752
던데	-8753
▁세미나	-8754
▁안마	-8755
▁하나도	-8756
▁풍경을	-8757
▁게임은	-8758
ervice	-8759
▁자신만의	-8760
▁복원	-8761
▁돕는	-8762
당에	-8763
▁높게	-8764
▁mechan	-8765
▁생생	-8766
▁노력이	-8767
▁이야기는	-8768
▁전역	-8769
▁압도	-8770
▁좋게	-8771
▁주면	-8772
수술	-8773
사장	-8774
가치	-8775
수요	-8776
▁lead	-8777
▁냈	-8778
____	-8779
▁주간	-8780
▁수를	-8781
▁위안	-8782
▁같고	-8783
왔던	-8784
▁effects	-8785
▁안전을	-8786
▁사고가	-8787
▁씨가	-8788
loud	-8789
연의	-8790
워드	-8791
▁커뮤니케이션	-8792
▁㈜	-8793
▁years	-8794
▁모습으로	-8795
하니까	-8796
▁곤란	-8797
▁믿을	-8798
▁삶에	-8799
▁syn	-8800
▁불가능한	-8801
▁쓰지	-8802
▁재개	-8803
따라	-8804
400	-8805
산은	-8806
▁(2	-8807
▁보도했다	-8808
▁진행한다	-8809
▁발매	-8810
▁부천	-8811
▁논쟁	-8812
▁sens	-8813
▁유해	-8814
▁하죠	-8815
▁적정	-8816
▁_	-8817
렸을	-8818
▁증가했다	-8819
▁못하게	-8820
!!!!	-8821
▁의미한다	-8822
▁스피커	-8823
▁맥주	-8824
▁해결하기	-8825
▁2001	-8826
▁추구하는	-8827
시설을	-8828
ource	-8829
실험	-8830
▁자본주의	-8831
▁줄여	-8832
andard	-8833
http	-8834
▁룰	-8835
▁역사적	-8836
▁고맙	-8837
▁누군가	-8838
테일	-8839
망이	-8840
urn	-8841
▁액세스	-8842
▁시원	-8843
▁단계를	-8844
>,	-8845
▁바깥	-8846
▁아트	-8847
선택	-8848
▁applic	-8849
▁불확	-8850
▁광역	-8851
ves	-8852
▁기다리고	-8853
▁배운	-8854
▁말씀이	-8855
▁이름은	-8856
▁궁극	-8857
▁않겠	-8858
▁계기가	-8859
▁스페셜	-8860
학원	-8861
▁associated	-8862
최고	-8863
▁듭니다	-8864
RA	-8865
▁색상	-8866
.4%	-8867
▁유용한	-8868
LE	-8869
▁알겠습니다	-8870
▁다니는	-8871
▁서민	-8872
▁확인을	-8873
▁나이가	-8874
▁출장안마	-8875
▁기사를	-8876
▁사랑의	-8877
▁사용됩니다	-8878
메이	-8879
▁전반적인	-8880
▁observed	-8881
▁하여금	-8882
▁있느냐	-8883
85	-8884
▁배우고	-8885
만은	-8886
살론	-8887
▁개인정보를	-8888
이제	-8889
▁전통적인	-8890
감에	-8891
▁기술은	-8892
▁활용하여	-8893
구에서	-8894
▁중에서도	-8895
▁눈길을	-8896
▁피고	-8897
▁점도	-8898
▁oper	-8899
▁시작해	-8900
▁횟	-8901
레이트	-8902
▁한쪽	-8903
▁양산	-8904
▁가방	-8905
재는	-8906
▁싱글	-8907
▁참여를	-8908
▁포르	-8909
구니	-8910
▁갚	-8911
▁극대화	-8912
▁paramet	-8913
69	-8914
▁하시면	-8915
▁미래의	-8916
▁가끔은	-8917
잡고	-8918
▁오리	-8919
▁최적화	-8920
▁term	-8921
▁중에는	-8922
특히	-8923
▁거치	-8924
.25	-8925
모든	-8926
▁field	-8927
연한	-8928
▁급격	-8929
▁기억이	-8930
▁들은	-8931
uce	-8932
스토리	-8933
▁살려	-8934
ayer	-8935
▁신축	-8936
▁한참	-8937
▁인민	-8938
위치	-8939
▁내장	-8940
▁차지하는	-8941
▁연동	-8942
아는	-8943
▁배터	-8944
air	-8945
ormal	-8946
▁위험한	-8947
▁그와	-8948
▁김정은	-8949
ublic	-8950
▁195	-8951
절차	-8952
▁쌓아	-8953
주차	-8954
투표	-8955
aj	-8956
▁일방	-8957
▁배가	-8958
.7%	-8959
스마트	-8960
▁적당한	-8961
▁거두	-8962
함으로	-8963
▁small	-8964
▁폭력	-8965
▁출장마사지	-8966
▁정부에서	-8967
▁동영	-8968
무는	-8969
로로	-8970
▁아침에	-8971
▁메시지	-8972
▁논리	-8973
▁현대차	-8974
▁70%	-8975
▁250	-8976
관으로	-8977
소서	-8978
▁있어도	-8979
▁인터넷을	-8980
▁고백	-8981
▁돋보	-8982
▁짚	-8983
▁파는	-8984
법과	-8985
단과	-8986
브라	-8987
▁젤	-8988
등이	-8989
▁마리	-8990
유럽	-8991
▁일정을	-8992
님께서는	-8993
▁머릿	-8994
공정	-8995
해양	-8996
▁결정하는	-8997
▁많을	-8998
▁CEO	-8999
▁long	-9000
43	-9001
그는	-9002
TP	-9003
▁자신들의	-9004
국장	-9005
ired	-9006
▁과세	-9007
▁준비가	-9008
——	-9009
▁위생	-9010
▁이거는	-9011
형으로	-9012
공무원	-9013
▁post	-9014
면적	-9015
▁때의	-9016
▁연금	-9017
하셔서	-9018
▁5%	-9019
그러나	-9020
reen	-9021
▁요구를	-9022
부담	-9023
▁치유	-9024
▁오일	-9025
▁불법적	-9026
▁노무	-9027
▁생각에	-9028
▁사내	-9029
▁설명과	-9030
공을	-9031
▁공중	-9032
▁그녀가	-9033
▁둥	-9034
냐면	-9035
▁개발에	-9036
▁캠페인	-9037
▁협조	-9038
▁시술	-9039
▁선택하는	-9040
민족	-9041
▁옹	-9042
▁클래식	-9043
터의	-9044
▁언젠	-9045
전기	-9046
▁간단히	-9047
투어	-9048
ices	-9049
▁분위기가	-9050
호는	-9051
▁있을지	-9052
▁위원님들	-9053
▁신뢰를	-9054
▁불어	-9055
▁독서	-9056
▁포커	-9057
▁한국은	-9058
▁줄이고	-9059
▁벌금	-9060
위원회를	-9061
▁연구는	-9062
▁대다	-9063
▁Le	-9064
▁These	-9065
▁고통을	-9066
▁시설을	-9067
▁과거의	-9068
할까	-9069
);	-9070
▁노동자	-9071
▁aff	-9072
스탄	-9073
▁앞장	-9074
▁확충	-9075
▁개선을	-9076
▁막을	-9077
명령	-9078
▁순위	-9079
▁아이디	-9080
▁시작했습니다	-9081
.9%	-9082
▁형제	-9083
▁스웨	-9084
IV	-9085
▁똑같이	-9086
▁지원할	-9087
▁가죽	-9088
▁고마	-9089
IF	-9090
▁컵	-9091
▁찾으	-9092
▁80%	-9093
▁주변의	-9094
방안	-9095
▁과학기술	-9096
됐다고	-9097
▁일제	-9098
▁동해	-9099
▁쓰레기	-9100
▁반환	-9101
올해	-9102
크로	-9103
▁확인하는	-9104
▁높일	-9105
▁검찰은	-9106
▁소금	-9107
머스	-9108
자고	-9109
▁트립	-9110
▁치매	-9111
적이며	-9112
▁아이들의	-9113
▁마운	-9114
당에서	-9115
▁관할	-9116
▁도모	-9117
▁부르는	-9118
▁소외	-9119
▁섬유	-9120
▁주말이면	-9121
▁performance	-9122
▁밝혔습니다	-9123
▁날아	-9124
▁직원이	-9125
▁두려워	-9126
▁준비하고	-9127
▁바라는	-9128
4%	-9129
전시	-9130
했다면	-9131
위원회가	-9132
ified	-9133
▁those	-9134
▁서비스에	-9135
버린	-9136
▁국가가	-9137
시한	-9138
축제	-9139
▁|[	-9140
▁부산시	-9141
▁giv	-9142
▁헐	-9143
▁이승	-9144
▁임의	-9145
▁(0)||	-9146
▁프로그램은	-9147
림이	-9148
▁물러	-9149
▁공산	-9150
동아	-9151
▁것이기	-9152
▁만든다	-9153
▁assess	-9154
▁activity	-9155
▁전체적인	-9156
▁실질적으로	-9157
설계	-9158
교환	-9159
▁목소리가	-9160
▁재해	-9161
▁독점	-9162
▁뚜렷	-9163
▁몰라	-9164
▁한국어	-9165
▁위원장은	-9166
기한	-9167
▁칩	-9168
▁요인	-9169
▁다음날	-9170
▁대단히	-9171
▁정부와	-9172
▁개념을	-9173
▁predic	-9174
▁bas	-9175
▁링크를	-9176
에에	-9177
▁평범한	-9178
.6%	-9179
▁다릅니다	-9180
▁나오지	-9181
▁게임이	-9182
▁공략	-9183
▁하네요	-9184
▁부합	-9185
▁과감	-9186
.8%	-9187
▁취향	-9188
됐습니다	-9189
형은	-9190
▁불가피	-9191
회와	-9192
▁트래	-9193
▁피해자	-9194
▁제품으로	-9195
이던	-9196
▁Se	-9197
▁가능성	-9198
▁당황	-9199
메리카	-9200
▁line	-9201
▁그나마	-9202
▁가족과	-9203
▁표현을	-9204
▁비교해	-9205
▁이들을	-9206
▁사역	-9207
▁프로그램이	-9208
▁요소를	-9209
▁가족의	-9210
▁기준이	-9211
터는	-9212
~!	-9213
▁피로	-9214
▁활용하는	-9215
▁곧바로	-9216
oph	-9217
▁사이트에	-9218
▁저하	-9219
▁임직원	-9220
일정	-9221
ina	-9222
▁살아남	-9223
▁쿨	-9224
▁기대를	-9225
▁디바이스	-9226
달라	-9227
▁거실	-9228
19)	-9229
▁후배	-9230
▁유형의	-9231
▁peri	-9232
▁화가	-9233
▁올리는	-9234
ton	-9235
▁불필	-9236
ission	-9237
▁속도가	-9238
▁징계	-9239
▁지원이	-9240
▁바로가기	-9241
프가	-9242
▁기간을	-9243
▁CJ	-9244
idence	-9245
▁소수	-9246
▁lear	-9247
▁Or	-9248
▁예전에	-9249
▁깎	-9250
▁회원이	-9251
▁정보통신	-9252
▁lo	-9253
yc	-9254
▁비율이	-9255
▁책임은	-9256
돼야	-9257
악의	-9258
▁아이들	-9259
킵니다	-9260
▁지어	-9261
vironment	-9262
▁조세	-9263
▁자격증	-9264
▁가능하게	-9265
▁무엇입니까	-9266
teg	-9267
▁자식	-9268
nal	-9269
▁있나	-9270
▁가만	-9271
▁관해	-9272
87	-9273
수입	-9274
▁배우는	-9275
▁within	-9276
시장에서	-9277
▁간다	-9278
▁하세요	-9279
연맹	-9280
▁맺고	-9281
▁정도를	-9282
▁하나인	-9283
▁테러	-9284
▁매도	-9285
▁권한을	-9286
hip	-9287
▁불평	-9288
▁어렵습니다	-9289
센터에서	-9290
▁발라	-9291
ner	-9292
▁이사회	-9293
▁붙어	-9294
▁고전	-9295
book	-9296
▁두께	-9297
련의	-9298
업에	-9299
EM	-9300
됐고	-9301
채널	-9302
▁경매	-9303
▁업로드	-9304
▁좋겠	-9305
▁진심으로	-9306
▁우유	-9307
▁이르기까지	-9308
ension	-9309
▁1.5	-9310
▁있겠지만	-9311
▁Su	-9312
놀이	-9313
▁가득한	-9314
▁이집	-9315
▁GS	-9316
▁성공한	-9317
▁해운	-9318
ince	-9319
▁보험료	-9320
▁second	-9321
혔다	-9322
▁면제	-9323
▁솔루션을	-9324
5000	-9325
▁매체	-9326
▁스키	-9327
▁수록	-9328
▁하나입니다	-9329
▁후속	-9330
법상	-9331
▁te	-9332
▁월급	-9333
▁describ	-9334
▁이용해서	-9335
▁김성	-9336
▁기업에	-9337
OL	-9338
▁물품	-9339
▁앙	-9340
▁탈출	-9341
▁significantly	-9342
▁평택	-9343
리콘	-9344
▁살인	-9345
-12	-9346
▁OS	-9347
▁원천	-9348
▁가라	-9349
▁항에	-9350
타를	-9351
▁소장	-9352
▁정성	-9353
블릿	-9354
공연	-9355
▁무상	-9356
▁세계에	-9357
▁위주로	-9358
▁add	-9359
▁수업을	-9360
▁가져오	-9361
▁싱가포르	-9362
▁자발	-9363
편의	-9364
▁빌려	-9365
▁9.	-9366
▁진행된다	-9367
▁달라고	-9368
▁비중이	-9369
자나	-9370
▁체포	-9371
▁보냈	-9372
▁서울대	-9373
▁화폐	-9374
▁피해가	-9375
▁툴	-9376
▁gene	-9377
▁52	-9378
▁보육	-9379
▁발견시	-9380
▁진술	-9381
▁이같이	-9382
▁일주일에	-9383
▁철저한	-9384
▁진행되고	-9385
port	-9386
▁mark	-9387
▁빛을	-9388
▁교육과	-9389
▁합성	-9390
▁되어서	-9391
▁건강에	-9392
카데미	-9393
TC	-9394
▁전까지	-9395
▁갈수록	-9396
오류	-9397
▁상담을	-9398
▁쏠	-9399
▁집으로	-9400
▁백성	-9401
▁했다는	-9402
▁결국은	-9403
▁올랐	-9404
▁조직의	-9405
세트	-9406
단으로	-9407
▁총리	-9408
▁개척	-9409
▁맞은	-9410
▁놈	-9411
세한	-9412
▁레이저	-9413
▁효능	-9414
▁합동	-9415
▁댄	-9416
▁가계	-9417
청에	-9418
▁이해하는	-9419
였지만	-9420
▁중간에	-9421
▁피부에	-9422
olution	-9423
▁보시	-9424
▁입국	-9425
받침	-9426
건에	-9427
▁승리를	-9428
▁차세대	-9429
▁pers	-9430
▁시스템은	-9431
생의	-9432
▁정상적인	-9433
▁increase	-9434
▁탐색	-9435
▁여러분은	-9436
▁propos	-9437
멕시코	-9438
▁육아	-9439
▁원인을	-9440
▁만드	-9441
▁털어	-9442
▁소모	-9443
▁만들어서	-9444
pr	-9445
BA	-9446
▁팀이	-9447
▁유익	-9448
▁비정규직	-9449
▁빠르고	-9450
▁필요는	-9451
감으로	-9452
▁말씀드리	-9453
▁5,	-9454
▁동의를	-9455
현실	-9456
층에	-9457
▁입사	-9458
8)	-9459
▁하위	-9460
조치	-9461
▁연휴	-9462
▁되겠	-9463
배포는	-9464
▁지나치게	-9465
inc	-9466
교를	-9467
▁논의를	-9468
▁www	-9469
▁주장을	-9470
▁박물관	-9471
▁indi	-9472
▁어우	-9473
트라	-9474
▁산림	-9475
산에	-9476
▁멘토	-9477
됨에	-9478
▁형식	-9479
▁정리해	-9480
BM	-9481
▁분쟁요소	-9482
▁설치된	-9483
OD	-9484
야구	-9485
▁일어날	-9486
러진	-9487
어플	-9488
타워	-9489
▁인생을	-9490
아파트	-9491
itor	-9492
▁시계	-9493
▁부딪	-9494
▁합류	-9495
▁그간	-9496
▁factors	-9497
졌다고	-9498
▁AS	-9499
▁180	-9500
▁위원장	-9501
숙한	-9502
▁비치	-9503
▁고소	-9504
▁발생합니다	-9505
▁금지되어	-9506
▁산업의	-9507
ynam	-9508
▁받아서	-9509
▁들여다	-9510
)]	-9511
▁공을	-9512
▁상향	-9513
▁repres	-9514
경에	-9515
▁concent	-9516
마가	-9517
했는지	-9518
▁수능	-9519
▁기록한	-9520
▁갓	-9521
▁알리	-9522
인력	-9523
인트를	-9524
▁올리고	-9525
onse	-9526
▁시에	-9527
▁주어진	-9528
폴리오	-9529
▁요즘은	-9530
▁current	-9531
▁시급	-9532
▁품목	-9533
▁콜라	-9534
HD	-9535
▁들어갔	-9536
▁찾은	-9537
▁기아	-9538
”,	-9539
▁energy	-9540
하되	-9541
▁래	-9542
▁직전	-9543
4.	-9544
▁방식이	-9545
▁순수	-9546
▁해피	-9547
▁옵션을	-9548
▁모를	-9549
▁거리를	-9550
endent	-9551
▁실망	-9552
▁회사에서	-9553
versity	-9554
▁담배	-9555
▁가해	-9556
▁줘야	-9557
▁충실	-9558
▁매력적인	-9559
마케팅	-9560
▁공동체	-9561
▁아끼	-9562
▁목적이	-9563
▁국내에서	-9564
........	-9565
성능	-9566
비전	-9567
되기도	-9568
검찰	-9569
▁명절	-9570
▁조용한	-9571
▁않았고	-9572
▁쿠키	-9573
▁토요일	-9574
▁심판	-9575
▁김치	-9576
▁total	-9577
▁바꾸는	-9578
▁답을	-9579
▁강요	-9580
VD	-9581
▁카운	-9582
▁굿	-9583
▁my	-9584
▁방법입니다	-9585
8%	-9586
팀이	-9587
▁휴식을	-9588
구로	-9589
▁다음으로	-9590
▁바라보는	-9591
▁애완동물	-9592
▁준비하는	-9593
IG	-9594
▁명품	-9595
▁두드	-9596
▁뭐야	-9597
▁면에서	-9598
악한	-9599
학회	-9600
▁해안	-9601
어드바이	-9602
▁상실	-9603
그리고	-9604
▁제공하기	-9605
▁좋다고	-9606
협약	-9607
▁기대한다	-9608
고자	-9609
▁temper	-9610
▁소파	-9611
▁수분	-9612
▁성공적인	-9613
▁짝	-9614
▁데려	-9615
▁©	-9616
▁판매하는	-9617
▁치즈	-9618
▁겨우	-9619
▁water	-9620
amp	-9621
스티벌	-9622
▁human	-9623
▁40%	-9624
ote	-9625
▁지역은	-9626
▁commun	-9627
▁오면	-9628
사업자	-9629
▁힘들어	-9630
▁펌	-9631
▁적발	-9632
ingle	-9633
로워	-9634
▁불일치	-9635
일자	-9636
▁싶어서	-9637
▁걷는	-9638
소통	-9639
▁넉	-9640
▁내외	-9641
류의	-9642
▁프로필	-9643
▁protein	-9644
▁시는	-9645
사이즈	-9646
▁골드	-9647
▁도대체	-9648
▁유지할	-9649
▁호르몬	-9650
▁decre	-9651
사도	-9652
▁학원	-9653
▁싸움	-9654
▁거론	-9655
▁죄를	-9656
▁현장에	-9657
▁부끄	-9658
▁나타내는	-9659
▁본부	-9660
▁성도	-9661
struc	-9662
icient	-9663
▁clinical	-9664
▁상태에	-9665
북도	-9666
▁이럴	-9667
▁작업이	-9668
▁엄청나게	-9669
▁계획이	-9670
▁설정을	-9671
르트	-9672
절한	-9673
▁일으키	-9674
▁나름대로	-9675
▁위원회	-9676
▁41	-9677
▁보호를	-9678
▁머신	-9679
▁도출	-9680
▁브리	-9681
▁vol	-9682
▁됐습니다	-9683
▁라이트	-9684
▁여러분들이	-9685
종이	-9686
▁인적	-9687
▁많은데	-9688
▁꺾	-9689
-9	-9690
검증	-9691
역사	-9692
▁진지	-9693
▁매력을	-9694
▁들어오는	-9695
▁disease	-9696
부동산	-9697
가며	-9698
▁병행	-9699
▁재발	-9700
클리	-9701
글로벌	-9702
▁하려는	-9703
way	-9704
텔레콤	-9705
▁아티스트	-9706
▁power	-9707
▁한달	-9708
▁감당	-9709
살이	-9710
▁혁명	-9711
▁매니저	-9712
하자는	-9713
▁proper	-9714
세이	-9715
자마자	-9716
안보	-9717
2015	-9718
▁체크아웃	-9719
▁정교	-9720
▁퀄	-9721
▁행복을	-9722
▁있네요	-9723
▁땅에	-9724
▁협력을	-9725
▁거지요	-9726
",	-9727
▁태양광	-9728
▁전담	-9729
▁보고를	-9730
▁적지	-9731
▁빼앗	-9732
▁서로의	-9733
원장	-9734
▁대행	-9735
터테인먼트	-9736
▁패러	-9737
▁감사를	-9738
▁리스트	-9739
▁트랙	-9740
군에	-9741
다이	-9742
▁공천	-9743
▁내의	-9744
개국	-9745
▁박스	-9746
▁궤	-9747
평화	-9748
▁평창	-9749
cording	-9750
▁기대된다	-9751
▁치아	-9752
▁건지	-9753
전환	-9754
▁튼	-9755
▁못했던	-9756
▁comb	-9757
▁MS	-9758
로에	-9759
▁넘어서	-9760
▁유산	-9761
▁FA	-9762
▁생각했다	-9763
▁그런지	-9764
▁1980	-9765
▁숫자	-9766
▁{	-9767
줬다	-9768
▁디스크	-9769
▁care	-9770
▁간접	-9771
메달	-9772
▁제조업	-9773
총리	-9774
▁기술과	-9775
▁워싱턴	-9776
▁김종	-9777
▁버리고	-9778
▁시티	-9779
▁보아	-9780
▁끝내	-9781
함은	-9782
▁위기를	-9783
▁알레	-9784
▁검출	-9785
▁순천	-9786
▁않는다면	-9787
▁플랫폼을	-9788
PA	-9789
렸고	-9790
▁support	-9791
▁둘러싼	-9792
▁세상의	-9793
초에	-9794
▁국회에서	-9795
▁생명을	-9796
▁obtained	-9797
▁중반	-9798
▁좀더	-9799
면이	-9800
우며	-9801
▁Stud	-9802
▁시나리오	-9803
▁여성이	-9804
▁나고	-9805
천원	-9806
▁ear	-9807
▁거고	-9808
▁배워	-9809
▁말씀드린	-9810
▁대외	-9811
공장	-9812
▁면적	-9813
▁한국인	-9814
대중	-9815
inu	-9816
광주	-9817
▁달콤	-9818
▁생각해보	-9819
CS	-9820
▁싶을	-9821
▁방금	-9822
▁이슬람	-9823
런트	-9824
eed	-9825
ditions	-9826
▁이라	-9827
▁전에는	-9828
▁뮤지컬	-9829
권과	-9830
ically	-9831
▁안산	-9832
▁희망을	-9833
▁영역을	-9834
▁기운	-9835
아동	-9836
▁이겨	-9837
▁groups	-9838
았다고	-9839
▁써야	-9840
▁증액	-9841
▁택시	-9842
진과	-9843
▁뛰어나	-9844
▁플러스	-9845
▁운영에	-9846
HE	-9847
▁선을	-9848
었으며	-9849
~5	-9850
▁오랜만에	-9851
63	-9852
셨다	-9853
▁화합	-9854
▁강릉	-9855
▁척추	-9856
▁수천	-9857
▁신경을	-9858
머리	-9859
콘텐츠	-9860
▁싶지	-9861
예방	-9862
▁하우스	-9863
-11	-9864
▁가족들과	-9865
▁깜짝	-9866
▁이다	-9867
접한	-9868
▁아이의	-9869
▁신선한	-9870
▁전화번호	-9871
▁걸려	-9872
▁한계가	-9873
졌던	-9874
복음	-9875
▁축적	-9876
▁윌	-9877
▁불리	-9878
▁목차	-9879
▁점에	-9880
▁완전한	-9881
▁활성화를	-9882
▁기술적	-9883
▁신속하게	-9884
에스	-9885
▁노조	-9886
▁본회의	-9887
vidual	-9888
▁조금만	-9889
▁PDF	-9890
▁브라질	-9891
▁황금	-9892
▁온갖	-9893
▁상품은	-9894
havi	-9895
었죠	-9896
▁호텔을	-9897
▁reported	-9898
▁2~3	-9899
▁주체	-9900
▁변형	-9901
▁이외에도	-9902
▁계곡	-9903
▁핑크	-9904
▁ST	-9905
▁연구개발	-9906
▁뷰티	-9907
▁어릴	-9908
atch	-9909
▁미용	-9910
▁쓰기	-9911
주년을	-9912
▁가족이	-9913
ask	-9914
▁게시판	-9915
▁모래	-9916
아트	-9917
▁이수	-9918
▁이해하기	-9919
LA	-9920
무료	-9921
사업에	-9922
▁아래에	-9923
▁2,000	-9924
▁현실을	-9925
▁이명박	-9926
▁저자	-9927
▁강연	-9928
병을	-9929
▁카카오톡	-9930
받았다	-9931
사유	-9932
7)	-9933
▁모습은	-9934
▁오빠	-9935
▁잡는	-9936
해졌다	-9937
고도	-9938
▁양의	-9939
▁엉덩	-9940
노조	-9941
부처	-9942
▁어울리는	-9943
▁IN	-9944
▁아쉽	-9945
하루	-9946
▁방치	-9947
▁gu	-9948
▁푸른	-9949
▁구동	-9950
▁내용과	-9951
▁늦게	-9952
▁도망	-9953
테이	-9954
▁각자	-9955
▁prac	-9956
▁관계없이	-9957
gor	-9958
▁그래야	-9959
▁단위로	-9960
▁조용히	-9961
▁흥미로운	-9962
▁포도	-9963
▁자존	-9964
교수	-9965
▁화물	-9966
▁합법	-9967
감염	-9968
▁이끄	-9969
▁휴식	-9970
61	-9971
▁because	-9972
하러	-9973
▁줄이는	-9974
▁estim	-9975
까지만	-9976
▁판단을	-9977
▁프로모션	-9978
▁상황은	-9979
공제	-9980
키로	-9981
장비	-9982
▁마켓	-9983
6%	-9984
▁메타	-9985
▁상용	-9986
사업의	-9987
▁맡고	-9988
▁적게	-9989
▁너는	-9990
▁among	-9991
▁술을	-9992
▁Des	-9993
▁리얼	-9994
이거나	-9995
▁협의를	-9996
▁제공되는	-9997
▁소음	-9998
▁회장이	-9999
▁dr	-10000
▁나와서	-10001
▁사람들도	-10002
인사	-10003
▁부가	-10004
▁극단	-10005
내며	-10006
▁선두	-10007
▁처분	-10008
ustr	-10009
····	-10010
▁윤리	-10011
▁지적이	-10012
▁겪는	-10013
▁프로토	-10014
▁건강보험	-10015
▁균형을	-10016
▁차지하고	-10017
인지를	-10018
▁사실이다	-10019
난다	-10020
▁등이다	-10021
▁기반을	-10022
▁염증	-10023
▁기능은	-10024
WS	-10025
▁이어서	-10026
▁대부분이	-10027
▁검토를	-10028
으시	-10029
▁발생하고	-10030
▁번도	-10031
경은	-10032
▁핸드폰	-10033
살을	-10034
너무	-10035
운전	-10036
트에서	-10037
었기	-10038
▁구별	-10039
▁호텔에서	-10040
▁아픈	-10041
▁커지고	-10042
▁확률이	-10043
▁사회를	-10044
▁상의	-10045
침을	-10046
▁번의	-10047
▁including	-10048
▁중지	-10049
기계	-10050
중심	-10051
tice	-10052
▁비서	-10053
▁발을	-10054
▁사고를	-10055
▁관하여	-10056
▁전도	-10057
▁과정은	-10058
~4	-10059
립을	-10060
▁고지	-10061
농업	-10062
▁발전에	-10063
▁el	-10064
라가	-10065
▁시선을	-10066
▁인건	-10067
reg	-10068
▁일상을	-10069
▁Table	-10070
▁다루는	-10071
▁든다	-10072
▁다짐	-10073
건으로	-10074
▁합쳐	-10075
나라는	-10076
▁올렸다	-10077
움과	-10078
▁촛	-10079
주간	-10080
▁김해	-10081
▁강사	-10082
▁잘라	-10083
즈의	-10084
omen	-10085
▁허브	-10086
▁부당	-10087
▁전문가들은	-10088
▁하드웨어	-10089
▁관여	-10090
▁”	-10091
▁tv	-10092
▁수렴	-10093
면에서	-10094
▁농협	-10095
류가	-10096
▁43	-10097
쾌한	-10098
aking	-10099
ns	-10100
▁웰	-10101
▁values	-10102
ification	-10103
▁frequ	-10104
공공	-10105
층을	-10106
▁식민	-10107
▁드리는	-10108
▁거다	-10109
봤습니다	-10110
▁선별	-10111
▁트레	-10112
▁파리	-10113
아시아경제	-10114
▁화장실	-10115
완료	-10116
iver	-10117
하네요	-10118
▁헌신	-10119
▁직원들이	-10120
7%	-10121
▁증언	-10122
▁발효	-10123
ople	-10124
보수	-10125
니라	-10126
▁당연한	-10127
화한	-10128
▁하시고	-10129
▁어렵게	-10130
하느냐	-10131
▁남부	-10132
▁고무	-10133
▁부실	-10134
▁나라를	-10135
내에	-10136
드라마	-10137
▁many	-10138
▁브로	-10139
arget	-10140
▁산출	-10141
▁진주	-10142
▁rec	-10143
▁보여준다	-10144
▁공제	-10145
▁ㅇ	-10146
▁낡	-10147
투스	-10148
ah	-10149
▁기쁘	-10150
▁양파	-10151
은행은	-10152
▁탱	-10153
▁800	-10154
▁아래로	-10155
▁랭	-10156
▁methods	-10157
▁하나님께서	-10158
▁’	-10159
▁크루	-10160
▁특성상	-10161
▁해방	-10162
과도	-10163
oh	-10164
▁호기	-10165
▁그야말로	-10166
MI	-10167
.15	-10168
▁와인	-10169
▁땅을	-10170
▁AR	-10171
▁공연을	-10172
▁감수	-10173
▁중학교	-10174
▁프로그래밍	-10175
▁최상의	-10176
프의	-10177
오염	-10178
▁악성	-10179
또는	-10180
억원의	-10181
▁하려면	-10182
▁용어	-10183
▁포털	-10184
리포니아	-10185
arch	-10186
▁서브	-10187
욕을	-10188
▁처럼	-10189
▁59	-10190
봅시다	-10191
▁approach	-10192
대사	-10193
▁몰려	-10194
▁읽기	-10195
▁동시	-10196
▁알파	-10197
▁가르쳐	-10198
▁AD	-10199
▁Ser	-10200
▁④	-10201
▁과태	-10202
▁10.	-10203
나갈	-10204
지인	-10205
▁폴리	-10206
▁fl	-10207
▁재고	-10208
▁클라이언	-10209
▁태어난	-10210
▁속의	-10211
▁위임	-10212
시하는	-10213
▁포럼	-10214
낍니다	-10215
▁명확히	-10216
▁었	-10217
▁다행히	-10218
▁정신을	-10219
▁cancer	-10220
▁size	-10221
▁자세히보기	-10222
▁type	-10223
▁입원	-10224
▁파악하고	-10225
▁측면이	-10226
장관	-10227
호선	-10228
▁끝나고	-10229
▁산정	-10230
처분	-10231
▁결과적으로	-10232
주지	-10233
▁fil	-10234
▁안타까	-10235
▁괴롭	-10236
저축	-10237
▁늘었다	-10238
▁진행했다	-10239
▁거룩	-10240
▁가졌다	-10241
▁이같은	-10242
철도	-10243
▁묘사	-10244
▁창립	-10245
어지는	-10246
▁높이기	-10247
▁64	-10248
▁인생의	-10249
▁수직	-10250
▁LA	-10251
▁한두	-10252
▁상태다	-10253
▁techn	-10254
▁대체로	-10255
▁child	-10256
토론	-10257
위와	-10258
▁귀하	-10259
▁환자가	-10260
▁지키는	-10261
▁You	-10262
▁갈아	-10263
▁would	-10264
▁구매할	-10265
온라인	-10266
▁대출을	-10267
▁포트폴리오	-10268
▁contain	-10269
▁아들이	-10270
▁large	-10271
▁부모님	-10272
▁가짜	-10273
▁lower	-10274
▁걸린	-10275
ference	-10276
▁대개	-10277
▁영국의	-10278
▁바람이	-10279
▁귀찮	-10280
▁임차	-10281
▁지금부터	-10282
▁일자리를	-10283
▁previous	-10284
모가	-10285
▁90%	-10286
▁안고	-10287
▁달아	-10288
▁바디	-10289
▁가지를	-10290
▁전체의	-10291
평을	-10292
▁들었습니다	-10293
▁상생	-10294
▁cases	-10295
예정	-10296
▁대박	-10297
패를	-10298
▁만났	-10299
▁know	-10300
▁HT	-10301
▁명백	-10302
산업의	-10303
▁전설	-10304
크림	-10305
▁똑같	-10306
ube	-10307
▁잘하는	-10308
▁중개	-10309
ck	-10310
▁사항에	-10311
▁행사는	-10312
▁모터	-10313
▁주장하는	-10314
으려고	-10315
▁보실	-10316
때는	-10317
웠습니다	-10318
시킨다	-10319
마의	-10320
▁prof	-10321
▁tum	-10322
▁김포	-10323
▁5,000	-10324
▁중요하다고	-10325
ived	-10326
▁돼서	-10327
▁소년	-10328
▁mean	-10329
▁고수	-10330
▁part	-10331
인들에게	-10332
학자	-10333
보조	-10334
▁고도	-10335
▁패스	-10336
심리	-10337
(20	-10338
▁모험	-10339
▁것들	-10340
색으로	-10341
선언	-10342
국으로	-10343
▁them	-10344
▁군산	-10345
▁세일	-10346
▁시뮬	-10347
▁빌딩	-10348
▁대충	-10349
호에	-10350
▁자유한국	-10351
▁더블	-10352
▁즐겁게	-10353
▁명확하게	-10354
보안	-10355
▁트립어드바이	-10356
onstr	-10357
스카	-10358
담보	-10359
소스	-10360
▁설명해	-10361
혈압	-10362
▁pur	-10363
org	-10364
▁수행할	-10365
▁감독의	-10366
▁여기까지	-10367
Hz	-10368
▁연대	-10369
▁직접적인	-10370
MB	-10371
라이트	-10372
▁아직까지	-10373
▁very	-10374
▁탁월한	-10375
▁미세먼지	-10376
▁작가의	-10377
6,	-10378
▁높고	-10379
▁부드럽게	-10380
▁시달	-10381
재해	-10382
▁눈으로	-10383
감도	-10384
89	-10385
html	-10386
▁전체가	-10387
▁바닷	-10388
▁공개했다	-10389
▁당부했다	-10390
▁인간은	-10391
▁provide	-10392
▁파란	-10393
▁그리스도의	-10394
▁경기가	-10395
▁1999	-10396
▁phys	-10397
▁심화	-10398
브랜드	-10399
▁궁금한	-10400
▁아무튼	-10401
구와	-10402
▁시작한다	-10403
▁내다	-10404
▁국세	-10405
동조합	-10406
▁엄마가	-10407
-01	-10408
▁hel	-10409
gorith	-10410
▁드론	-10411
▁법원	-10412
▁Hot	-10413
▁깨끗한	-10414
▁든든	-10415
▁similar	-10416
념을	-10417
▁설탕	-10418
▁아이돌	-10419
▁의사를	-10420
▁저기	-10421
버그	-10422
▁어두운	-10423
탄을	-10424
▁기금	-10425
▁매번	-10426
▁거리가	-10427
▁혐의를	-10428
▁particip	-10429
▁성형	-10430
되었던	-10431
▁시원한	-10432
▁사장은	-10433
lobal	-10434
패스	-10435
피를	-10436
▁collec	-10437
▁structure	-10438
차량	-10439
▁샐	-10440
졌을	-10441
▁편안하게	-10442
▁핏	-10443
▁저소득	-10444
거리를	-10445
시장에	-10446
xt	-10447
▁볼륨	-10448
▁실습	-10449
▁organ	-10450
기에는	-10451
▁목소리	-10452
열을	-10453
▁상담원	-10454
리면서	-10455
▁곳이다	-10456
▁넘겨	-10457
▁스트리	-10458
SA	-10459
▁가지가	-10460
▁공격을	-10461
▁국민이	-10462
▁conditions	-10463
▁SU	-10464
▁나타날	-10465
▁인텔	-10466
▁드라이버	-10467
오니	-10468
▁해가	-10469
▁코너	-10470
▁실리콘	-10471
▁홈페이지를	-10472
▁쪼	-10473
정지	-10474
▁respectively	-10475
▁논의가	-10476
▁해지	-10477
▁작성일	-10478
▁급속	-10479
▁회원가입	-10480
▁메일	-10481
▁quality	-10482
▁불량	-10483
▁멕시코	-10484
▁현상을	-10485
▁서명	-10486
석의	-10487
▁농민	-10488
레이크	-10489
▁맞습니다	-10490
RL	-10491
▁마크	-10492
▁모르겠다	-10493
진에	-10494
▁API	-10495
▁아이들을	-10496
▁real	-10497
▁bu	-10498
▁손쉽게	-10499
▁순서	-10500
.18	-10501
속에서	-10502
차이즈	-10503
▁있으신	-10504
▁감사의	-10505
▁복수의	-10506
▁−	-10507
여러	-10508
▁대륙	-10509
▁배팅	-10510
▁ref	-10511
나가는	-10512
▁강좌	-10513
▁근본적인	-10514
ouse	-10515
▁작성한	-10516
주와	-10517
▁고구	-10518
▁vis	-10519
들로부터	-10520
ces	-10521
▁뻗	-10522
▁잃어버	-10523
MD	-10524
▁마약	-10525
▁올릴	-10526
▁다름	-10527
▁태어	-10528
▁무렵	-10529
해진다	-10530
▁방송을	-10531
에게서	-10532
당과	-10533
▁오바	-10534
▁근거를	-10535
▁NA	-10536
▁죽을	-10537
▁태블릿	-10538
▁센서	-10539
▁지진이	-10540
▁편리한	-10541
▁럭	-10542
▁몫	-10543
여명이	-10544
마리	-10545
▁중국은	-10546
▁:)	-10547
▁느끼게	-10548
▁코인	-10549
▁세상이	-10550
▁본래	-10551
시장은	-10552
▁모른	-10553
▁회수	-10554
▁까다	-10555
▁의학	-10556
opyright	-10557
▁위성	-10558
▁해수	-10559
▁전염	-10560
▁플러그	-10561
▁부장	-10562
▁있었어요	-10563
나를	-10564
복합	-10565
▁알았	-10566
▁노란	-10567
▁안되는	-10568
스레	-10569
▁이루어지는	-10570
우가	-10571
▁그렇고	-10572
▁문서를	-10573
스런	-10574
▁학생들은	-10575
막을	-10576
▁사각	-10577
▁신제품	-10578
울산	-10579
62	-10580
▁오해	-10581
▁individual	-10582
▁영입	-10583
차게	-10584
▁700	-10585
▁수동	-10586
▁suggest	-10587
▁추후	-10588
배상	-10589
장한	-10590
▁세상에서	-10591
▁state	-10592
됐던	-10593
▁마사	-10594
▁좁은	-10595
▁금액이	-10596
▁싹	-10597
▁실효	-10598
▁찍은	-10599
▁한강	-10600
▁일환으로	-10601
▁로맨	-10602
진한	-10603
적이지	-10604
▁안으로	-10605
심에	-10606
▁시민들이	-10607
▁추측	-10608
▁책임이	-10609
▁속으로	-10610
▁잡은	-10611
▁요청을	-10612
▁공고	-10613
▁남는	-10614
▁potential	-10615
문은	-10616
iness	-10617
▁extr	-10618
▁삶이	-10619
▁갑니다	-10620
▁습관	-10621
▁performed	-10622
테이너	-10623
교사	-10624
▁법에	-10625
▁이끄는	-10626
lood	-10627
러워	-10628
패드	-10629
성인	-10630
umps	-10631
▁공개된	-10632
▁도서관	-10633
더를	-10634
월의	-10635
▁바이러	-10636
▁오지	-10637
▁without	-10638
청년	-10639
이도	-10640
orts	-10641
▁가중	-10642
드라이	-10643
▁치고	-10644
▁인터뷰에서	-10645
▁힐링	-10646
ai	-10647
▁소비자의	-10648
▁inhib	-10649
▁않다고	-10650
▁고객센터의	-10651
▁박정	-10652
▁느껴지는	-10653
▁집어	-10654
▁밀려	-10655
▁높습니다	-10656
▁신고센터를	-10657
▁메이크업	-10658
플러	-10659
▁4)	-10660
▁살해	-10661
▁작곡	-10662
셔츠	-10663
▁안정적으로	-10664
uk	-10665
크라이나	-10666
유통	-10667
▁electr	-10668
▁VR	-10669
▁자부	-10670
▁목숨을	-10671
▁전문의	-10672
▁자유를	-10673
▁재활용	-10674
버리	-10675
▁사서	-10676
▁following	-10677
▁시민의	-10678
▁노사	-10679
▁얼굴이	-10680
▁양해	-10681
▁나오면	-10682
▁conduc	-10683
체제	-10684
▁새해	-10685
▁얻기	-10686
▁Col	-10687
▁invol	-10688
▁춘천	-10689
▁업무에	-10690
사태	-10691
해주고	-10692
▁허락	-10693
▁늘고	-10694
▁그들에게	-10695
▁기온	-10696
▁녹음	-10697
▁1%	-10698
▁위축	-10699
▁마침내	-10700
▁공동으로	-10701
원들이	-10702
▁인상을	-10703
▁감염증	-10704
친다	-10705
▁improve	-10706
▁개성	-10707
▁demonstr	-10708
▁how	-10709
▁다중	-10710
국과	-10711
▁시민들의	-10712
▁del	-10713
▁방식의	-10714
▁문제점	-10715
▁경비	-10716
▁살피	-10717
자면	-10718
▁벼	-10719
▁성향	-10720
▁05	-10721
▁감면	-10722
▁중요성을	-10723
▁기준에	-10724
변경	-10725
심은	-10726
▁소관	-10727
▁레시피	-10728
▁깃	-10729
▁95	-10730
gl	-10731
▁용이	-10732
▁가능할	-10733
킬로	-10734
행이	-10735
▁피트	-10736
역에서	-10737
▁컨셉	-10738
ished	-10739
▁의회	-10740
되지만	-10741
▁수준이	-10742
▁유전자	-10743
▁직장인	-10744
▁활동이	-10745
기간이	-10746
700	-10747
▁현장을	-10748
▁성립	-10749
ene	-10750
인간	-10751
▁풀이	-10752
▁충청	-10753
▁감독이	-10754
▁뒤를	-10755
▁갑작	-10756
▁님	-10757
OU	-10758
작은	-10759
▁플로	-10760
▁탄탄	-10761
▁사퇴	-10762
▁휩	-10763
▁뒷받침	-10764
▁말아야	-10765
▁반찬	-10766
▁->	-10767
▁약속을	-10768
▁찬성	-10769
출을	-10770
▁갈등을	-10771
▁거래가	-10772
▁실제내용	-10773
▁톡	-10774
▁중복자료	-10775
▁파일오류	-10776
▁돼지	-10777
센터는	-10778
만으로도	-10779
▁인해서	-10780
omic	-10781
▁들어와	-10782
▁왕복	-10783
▁감성	-10784
▁속도로	-10785
▁중요하게	-10786
▁진행한	-10787
▁책이	-10788
▁사이트에서	-10789
화할	-10790
▁욕실	-10791
▁지갑	-10792
▁바람에	-10793
웨어를	-10794
▁미국에	-10795
▁명을	-10796
▁바뀐	-10797
방식	-10798
aster	-10799
▁쪽에	-10800
read	-10801
▁등장하는	-10802
유산	-10803
▁강아지	-10804
▁내용으로	-10805
긴다	-10806
▁만들어야	-10807
ests	-10808
▁방식은	-10809
오를	-10810
▁사회주의	-10811
▁실정	-10812
심과	-10813
만원이	-10814
(200	-10815
▁아닌데	-10816
▁동양	-10817
▁안심하고	-10818
▁승객	-10819
▁동북	-10820
▁정밀	-10821
▁피곤	-10822
▁관세	-10823
▁띠	-10824
▁돌아오	-10825
▁델	-10826
▁결승	-10827
게도	-10828
플릭	-10829
▁맞서	-10830
ae	-10831
▁85	-10832
행동	-10833
▁네덜	-10834
▁ㅜㅜ	-10835
▁models	-10836
그라	-10837
▁않는다고	-10838
▁웹툰	-10839
눈에	-10840
▁Im	-10841
▁예수님의	-10842
▁보상을	-10843
▁표기	-10844
▁상품이	-10845
▁열었다	-10846
지역의	-10847
▁것이지요	-10848
▁타인의	-10849
▁목표는	-10850
▁특징을	-10851
포먼	-10852
▁차지했다	-10853
onal	-10854
▁글은	-10855
▁재단	-10856
노총	-10857
▁보라	-10858
▁할아버	-10859
▁정갈	-10860
▁일부는	-10861
▁부과될	-10862
▁취지	-10863
▁위기에	-10864
미한	-10865
▁gl	-10866
▁경험과	-10867
▁없지	-10868
▁저렴하게	-10869
항의	-10870
▁선정된	-10871
었어	-10872
▁막아	-10873
현황	-10874
▁차관	-10875
▁노예	-10876
▁차이는	-10877
▁야간	-10878
▁걸릴	-10879
irc	-10880
▁선수가	-10881
▁상가	-10882
▁연결된	-10883
볼게요	-10884
▁혁신적인	-10885
▁cre	-10886
▁생각도	-10887
▁왠	-10888
▁보았다	-10889
▁유권	-10890
▁근로자	-10891
ensity	-10892
▁캘리포니아	-10893
PE	-10894
▁후회	-10895
▁typ	-10896
이요	-10897
▁optim	-10898
▁관계자	-10899
▁해결하는	-10900
▁양자	-10901
그렇	-10902
▁그릴	-10903
▁두는	-10904
▁수여	-10905
▁곳입니다	-10906
err	-10907
▁포지	-10908
청의	-10909
▁상한	-10910
▁0.5	-10911
based	-10912
▁주가가	-10913
▁작년에	-10914
렉스	-10915
▁adv	-10916
▁analyz	-10917
▁proposed	-10918
거를	-10919
▁읽을	-10920
▁피부를	-10921
▁과거에	-10922
▁장치를	-10923
안정	-10924
효율	-10925
▁수술을	-10926
▁08	-10927
ray	-10928
▁편리하게	-10929
▁결정할	-10930
▁각자의	-10931
vention	-10932
1000	-10933
▁참여해	-10934
교의	-10935
▁sequ	-10936
계약을	-10937
코올	-10938
추어	-10939
항을	-10940
we	-10941
루미	-10942
▁가만히	-10943
청에서	-10944
▁response	-10945
▁period	-10946
과정에서	-10947
힌다	-10948
▁메뉴를	-10949
PN	-10950
로마	-10951
▁준공	-10952
▁behavi	-10953
▁prom	-10954
▁누르면	-10955
▁가능성도	-10956
▁불확실	-10957
▁팀을	-10958
▁일하고	-10959
▁엔지니어	-10960
▁대부분은	-10961
▁누구도	-10962
▁안양	-10963
▁세운	-10964
▁마이너	-10965
▁부각	-10966
?!	-10967
러스트	-10968
▁첫번째	-10969
랑이	-10970
▁발간	-10971
됩니까	-10972
▁화상	-10973
▁일일	-10974
두에	-10975
▁자궁	-10976
▁팀의	-10977
랜차이즈	-10978
▁목포	-10979
▁플랜	-10980
▁되죠	-10981
▁Pre	-10982
▁년간	-10983
▁보았습니다	-10984
▁Be	-10985
▁린	-10986
▁체제	-10987
베이터	-10988
형태	-10989
ced	-10990
▁들어온	-10991
▁머리카	-10992
▁시험을	-10993
▁SD	-10994
어린이	-10995
▁출생	-10996
해드립니다	-10997
▁—	-10998
▁트립어드바이저는	-10999
최신	-11000
▁age	-11001
▁남자가	-11002
▁대한민국의	-11003
▁compar	-11004
▁여러분들	-11005
▁지나면	-11006
▁구미	-11007
▁관리가	-11008
▁지원한다	-11009
▁달러를	-11010
▁누워	-11011
utions	-11012
노트	-11013
▁햄	-11014
Ch	-11015
▁complex	-11016
▁일요일	-11017
▁전략적	-11018
-21	-11019
▁정상회담	-11020
하겠	-11021
▁bet	-11022
▁나라가	-11023
▁avail	-11024
Fig	-11025
▁부회	-11026
asing	-11027
▁initi	-11028
졌다는	-11029
▁최소한의	-11030
▁알림	-11031
ule	-11032
▁재벌	-11033
▁있지요	-11034
분양	-11035
▁수사를	-11036
▁낚시	-11037
▁내릴	-11038
▁role	-11039
ino	-11040
계좌	-11041
위원회에서	-11042
▁장을	-11043
▁확실하게	-11044
로서는	-11045
임에도	-11046
▁강화를	-11047
▁문화예술	-11048
asc	-11049
▁대변인은	-11050
기에서	-11051
▁부분에서	-11052
등한	-11053
▁나눌	-11054
▁acid	-11055
운동을	-11056
▁굵	-11057
▁됨	-11058
▁내야	-11059
▁장기간	-11060
▁들어가서	-11061
▁받으면	-11062
▁전해졌다	-11063
▁양식	-11064
▁채널을	-11065
행복	-11066
▁설비	-11067
▁한해	-11068
▁앓	-11069
값이	-11070
▁51	-11071
▁시스템에	-11072
▁껍	-11073
▁뮤직	-11074
▁일대	-11075
대학원	-11076
▁(3)	-11077
▁영화는	-11078
▁절대로	-11079
▁서양	-11080
▁수시로	-11081
▁아나	-11082
▁입맛	-11083
소재	-11084
▁책의	-11085
▁등산	-11086
▁소멸	-11087
▁맵	-11088
▁게임에	-11089
▁대상을	-11090
erapy	-11091
▁반응이	-11092
▁피아	-11093
duce	-11094
▁대지	-11095
▁얘기가	-11096
▁specific	-11097
▁적용할	-11098
▁고속도로	-11099
▁동부	-11100
▁편이	-11101
▁과목	-11102
stand	-11103
▁mm	-11104
▁크리스마스	-11105
▁키우는	-11106
▁테스트를	-11107
less	-11108
▁양이	-11109
▁솔로	-11110
▁뜯	-11111
▁누릴	-11112
▁호환	-11113
▁프로그램에	-11114
▁돌아가는	-11115
인드	-11116
그림	-11117
이면서	-11118
▁1~2	-11119
▁진행될	-11120
▁야생	-11121
▁다리를	-11122
박물관	-11123
▁열정	-11124
int	-11125
▁에피	-11126
등포	-11127
ats	-11128
▁꼴	-11129
mit	-11130
▁부하	-11131
EA	-11132
▁냈다	-11133
▁평양	-11134
▁changes	-11135
▁음주	-11136
▁원리	-11137
관계가	-11138
TF	-11139
▁법이	-11140
▁다해	-11141
선에서	-11142
진단	-11143
▁양육	-11144
으시면	-11145
▁승인을	-11146
바라	-11147
▁정수	-11148
▁항공권을	-11149
▁신뢰할	-11150
▁influ	-11151
님들	-11152
▁셔틀	-11153
▁훈련을	-11154
실은	-11155
▁수확	-11156
▁립	-11157
▁occur	-11158
▁소상공인	-11159
▁내리는	-11160
▁관리에	-11161
위험	-11162
▁쉐	-11163
▁사진은	-11164
▁마늘	-11165
▁치열한	-11166
두는	-11167
▁도시의	-11168
시간에	-11169
84	-11170
▁temperature	-11171
셔널	-11172
상적인	-11173
▁대법원	-11174
▁세우	-11175
▁오신	-11176
바지	-11177
층이	-11178
▁세금을	-11179
합의	-11180
포럼	-11181
▁윤석	-11182
▁less	-11183
▁슬라이	-11184
▁대통령과	-11185
▁prim	-11186
▁further	-11187
▁아이들은	-11188
중의	-11189
▁요소가	-11190
▁트로	-11191
기부	-11192
중계	-11193
▁무인	-11194
▁중국이	-11195
▁relations	-11196
outh	-11197
▁내렸다	-11198
▁확률	-11199
▁김태	-11200
▁온라인으로	-11201
▁타이어	-11202
▁원으로	-11203
oT	-11204
해져	-11205
람회	-11206
실의	-11207
▁통지	-11208
erti	-11209
▁봐요	-11210
▁촛불	-11211
▁안전하고	-11212
▁앵	-11213
▁전반에	-11214
▁SBS	-11215
▁바쁘	-11216
▁시골	-11217
치며	-11218
생물	-11219
▁본문내용	-11220
▁형태를	-11221
속을	-11222
▁강화하고	-11223
▁상영	-11224
▁추가적인	-11225
▁이어지고	-11226
▁또다시	-11227
변화	-11228
▁원장	-11229
▁★	-11230
▁다룬	-11231
디지털	-11232
▁standard	-11233
▁기다려	-11234
▁environment	-11235
▁System	-11236
▁요양	-11237
▁1997	-11238
건은	-11239
▁컬렉션	-11240
▁준비한	-11241
▁program	-11242
표준	-11243
ION	-11244
차의	-11245
▁롱	-11246
▁누락	-11247
▁우편	-11248
▁부근	-11249
▁correl	-11250
▁금연	-11251
▁아쉬운	-11252
값을	-11253
▁재현	-11254
▁2.5	-11255
▁여섯	-11256
권도	-11257
▁소환	-11258
▁끝이	-11259
▁하나님께	-11260
▁메이커	-11261
▁교통사고	-11262
▁태도를	-11263
▁나노	-11264
▁디렉	-11265
▁매출이	-11266
▁국민의힘	-11267
▁실시하고	-11268
▁즐거움을	-11269
▁다음의	-11270
▁낯선	-11271
▁포착	-11272
ING	-11273
▁끌어올	-11274
선생	-11275
▁확진자	-11276
▁장소에서	-11277
ript	-11278
▁정규직	-11279
2014	-11280
▁inst	-11281
▁링	-11282
▁성별	-11283
▁사회에서	-11284
▁영화의	-11285
▁베이징	-11286
▁고장	-11287
▁종로	-11288
▁규모로	-11289
▁정기적으로	-11290
▁기자회견	-11291
▁늘어나고	-11292
총장	-11293
방이	-11294
osph	-11295
verage	-11296
션이	-11297
▁온천	-11298
▁다채	-11299
시장이	-11300
▁맡아	-11301
▁01	-11302
▁비로	-11303
▁한국을	-11304
▁pat	-11305
▁브랜드를	-11306
▁크기가	-11307
▁Ag	-11308
▁드래	-11309
▁dev	-11310
▁보시는	-11311
▁patient	-11312
체와	-11313
▁탄핵	-11314
▁사냥	-11315
▁바르	-11316
▁불편한	-11317
▁주소를	-11318
▁흐르는	-11319
색의	-11320
▁유혹	-11321
▁탓에	-11322
▁알리는	-11323
료는	-11324
▁높아지고	-11325
ately	-11326
▁지점	-11327
▁남한	-11328
▁말이에요	-11329
▁차량을	-11330
IM	-11331
▁잦	-11332
ependent	-11333
▁iP	-11334
▁안타깝	-11335
▁랩	-11336
성급	-11337
▁행운	-11338
▁suc	-11339
▁비용은	-11340
▁기대하고	-11341
▁킹	-11342
▁모르겠지만	-11343
▁이용자의	-11344
▁diagn	-11345
▁기간에	-11346
▁1998	-11347
증명	-11348
▁맞춘	-11349
▁area	-11350
▁growth	-11351
▁무거운	-11352
▁최선의	-11353
철수	-11354
▁후에도	-11355
▁제시한	-11356
▁후쿠	-11357
▁techni	-11358
▁Ⅰ	-11359
▁6,	-11360
▁연락을	-11361
▁07	-11362
▁삼아	-11363
9)	-11364
amm	-11365
over	-11366
vent	-11367
질랜드	-11368
▁초보	-11369
▁single	-11370
활성	-11371
▁57	-11372
▁글이	-11373
본을	-11374
▁자료에	-11375
▁인종	-11376
▁주차장	-11377
▁웬	-11378
▁근처에	-11379
▁이쪽	-11380
osp	-11381
▁점수를	-11382
▁local	-11383
▁일입니다	-11384
센스	-11385
가정	-11386
RNA	-11387
▁삼각	-11388
▁어렵고	-11389
▁고추	-11390
▁웃음	-11391
▁주사	-11392
드려요	-11393
▁필요성이	-11394
▁슬로	-11395
▁돌입	-11396
▁수준에	-11397
▁열린다	-11398
제목	-11399
▁리조트	-11400
▁거짓말	-11401
▁속에서도	-11402
▁튼튼	-11403
▁매트	-11404
▁단계에서	-11405
2000	-11406
▁이후로	-11407
▁렌즈	-11408
워요	-11409
아래	-11410
▁이모	-11411
▁있다가	-11412
▁세우고	-11413
▁원전	-11414
▁7,	-11415
resp	-11416
▁귀여운	-11417
▁않나요	-11418
▁영구	-11419
▁교정	-11420
▁해킹	-11421
▁데에	-11422
▁surface	-11423
▁빼고	-11424
석에	-11425
▁번씩	-11426
▁하얀	-11427
▁출장샵	-11428
▁바쁜	-11429
▁형성된	-11430
▁걱정이	-11431
▁radi	-11432
경우	-11433
▁뜻이	-11434
▁일본은	-11435
▁당해	-11436
됐으며	-11437
▁tri	-11438
영어	-11439
▁bel	-11440
▁퍼포먼	-11441
▁Uni	-11442
고에	-11443
▁그로	-11444
▁dom	-11445
정비	-11446
해외	-11447
▁AN	-11448
▁보여준	-11449
▁맞고	-11450
▁의약품	-11451
▁특정한	-11452
▁할까요	-11453
▁느낍니다	-11454
▁생태계	-11455
▁상처를	-11456
먹는	-11457
▁않나	-11458
▁신호를	-11459
바이트	-11460
▁꽉	-11461
▁숙소	-11462
▁정답	-11463
▁날씨가	-11464
▁규모는	-11465
edia	-11466
▁진행됐다	-11467
▁순으로	-11468
치와	-11469
▁용산	-11470
▁제출한	-11471
푸드	-11472
▁구매한	-11473
▁개발하고	-11474
▁마우스	-11475
모임	-11476
▁수련	-11477
▁승진	-11478
▁약한	-11479
▁연구에	-11480
▁몸의	-11481
▁줄어든	-11482
▁보여줍니다	-11483
▁먹기	-11484
▁스포	-11485
▁데리고	-11486
없다	-11487
▁지원해	-11488
▁ep	-11489
▁서초	-11490
▁알기	-11491
▁엄격	-11492
학기	-11493
▁언급한	-11494
시행	-11495
TO	-11496
부지	-11497
▁집착	-11498
청구	-11499
PL	-11500
▁폼	-11501
▁의외	-11502
▁톱	-11503
▁못하면	-11504
▁장비를	-11505
▁익숙한	-11506
▁CN	-11507
▁SS	-11508
▁같았다	-11509
5,	-11510
씨와	-11511
차원	-11512
▁응시	-11513
▁실시한	-11514
▁algorith	-11515
▁두번째	-11516
▁동맹	-11517
하긴	-11518
▁부패	-11519
▁요새	-11520
▁이룬	-11521
ving	-11522
▁ES	-11523
▁넉넉	-11524
▁back	-11525
▁혁신을	-11526
▁고려해야	-11527
▁58	-11528
▁패배	-11529
밀히	-11530
▁보고서를	-11531
스텔	-11532
톨릭	-11533
▁기뻐	-11534
▁간편하게	-11535
▁참으로	-11536
man	-11537
▁모범	-11538
▁겁니까	-11539
▁둘러싸	-11540
▁구상	-11541
Is	-11542
▁있었기	-11543
▁숭	-11544
주인	-11545
▁김현	-11546
▁New	-11547
▁마십시오	-11548
ajor	-11549
▁사건의	-11550
차에	-11551
▁주파	-11552
▁잠을	-11553
▁문화재	-11554
▁투자가	-11555
▁개발자	-11556
역이	-11557
▁목회	-11558
▁심사를	-11559
▁자연스러운	-11560
▁서식	-11561
▁노무현	-11562
▁헛	-11563
음에	-11564
▁않았을	-11565
ole	-11566
▁용량	-11567
▁서면	-11568
▁영원히	-11569
▁증정	-11570
▁학교에	-11571
▁보강	-11572
atures	-11573
▁방문한	-11574
▁인턴	-11575
가상	-11576
재난	-11577
▁과장	-11578
▁꽂	-11579
예를	-11580
HO	-11581
대응	-11582
▁차원의	-11583
▁벗어	-11584
▁한국과	-11585
수지	-11586
▁화면을	-11587
▁골라	-11588
양주	-11589
▁given	-11590
▁감사드립니다	-11591
▁개인이	-11592
▁마법	-11593
▁이루는	-11594
소설	-11595
▁comput	-11596
근무	-11597
▁동성	-11598
▁부를	-11599
▁유로	-11600
omet	-11601
▁경찰에	-11602
들고	-11603
▁클리	-11604
▁의무를	-11605
▁정보의	-11606
▁격리	-11607
고등학교	-11608
▁시대가	-11609
길래	-11610
ploy	-11611
▁흠	-11612
▁제로	-11613
상거래	-11614
프리카	-11615
▁예금	-11616
▁DB	-11617
▁고객은	-11618
집에	-11619
▁착수	-11620
▁분해	-11621
▁중계	-11622
▁탕	-11623
▁우연히	-11624
▁flow	-11625
▁related	-11626
▁우크라이나	-11627
au	-11628
▁mechanism	-11629
▁늘려	-11630
▁피부가	-11631
istic	-11632
▁사장님	-11633
▁생애	-11634
▁Cont	-11635
작을	-11636
▁콘셉	-11637
▁전반적으로	-11638
fy	-11639
▁잡을	-11640
▁유선	-11641
▁인원	-11642
ticle	-11643
▁윗	-11644
▁선호하는	-11645
▁학교에서	-11646
ern	-11647
프라이	-11648
▁train	-11649
▁한계를	-11650
스럽고	-11651
▁게이트	-11652
▁represent	-11653
▁수비	-11654
▁자율주행	-11655
▁불을	-11656
비교	-11657
▁유래	-11658
일랜드	-11659
ocus	-11660
▁싼	-11661
티비	-11662
▁기여할	-11663
▁연결하는	-11664
▁중국에서	-11665
▁콤	-11666
ream	-11667
▁명확한	-11668
▁비트코인	-11669
2022	-11670
▁지루	-11671
반을	-11672
-09	-11673
어링	-11674
▁원인은	-11675
출처	-11676
▁환율	-11677
▁보도록	-11678
▁성명	-11679
격이	-11680
▁결론을	-11681
인들을	-11682
▁한가	-11683
령으로	-11684
▁ver	-11685
▁전문적인	-11686
들기	-11687
▁존재하지	-11688
▁발생을	-11689
드리는	-11690
▁앞둔	-11691
▁위원님께서	-11692
▁안되	-11693
▁차라리	-11694
스토어	-11695
▁여호와	-11696
▁전국의	-11697
봤는데	-11698
▁샌드	-11699
▁복수	-11700
▁영향이	-11701
▁pri	-11702
▁밥을	-11703
되었을	-11704
전용	-11705
기관에	-11706
▁물고	-11707
▁남을	-11708
▁판매를	-11709
▁연결되어	-11710
전지	-11711
▁주목을	-11712
▁차별화된	-11713
▁도구를	-11714
▁Pr	-11715
onic	-11716
▁가족을	-11717
▁준비해	-11718
▁cent	-11719
집행	-11720
▁만듭니다	-11721
렸는데	-11722
▁discuss	-11723
▁일과	-11724
했다가	-11725
▁비대면	-11726
대리	-11727
▁유리한	-11728
▁네이	-11729
hy	-11730
▁당뇨병	-11731
▁위와	-11732
▁최대의	-11733
▁기자회견을	-11734
어지고	-11735
위해	-11736
▁보드	-11737
▁깊게	-11738
주의를	-11739
▁samples	-11740
▁Ass	-11741
딩을	-11742
▁신임	-11743
▁sl	-11744
▁인디	-11745
▁우주의	-11746
▁마땅	-11747
▁비핵	-11748
▁의류	-11749
▁되니까	-11750
▁노하우를	-11751
▁바가	-11752
중공업	-11753
▁접목	-11754
▁문제점을	-11755
▁중동	-11756
▁주시는	-11757
ude	-11758
▁재직	-11759
▁사람에	-11760
풀이	-11761
ables	-11762
제조	-11763
▁저가	-11764
바카라	-11765
▁규정이	-11766
▁목적은	-11767
▁나뉘	-11768
▁max	-11769
▁실수	-11770
▁이곳에서	-11771
▁조지	-11772
▁최상	-11773
▁답했다	-11774
여름	-11775
(8	-11776
네트워크	-11777
보지	-11778
PD	-11779
기관이	-11780
민이	-11781
▁수납	-11782
와이	-11783
▁초록	-11784
▁프라	-11785
칩니다	-11786
▁영향력을	-11787
▁환영합니다	-11788
▁밤에	-11789
▁통찰	-11790
▁받으며	-11791
▁퀄리티	-11792
▁영향으로	-11793
▁사회가	-11794
▁수평	-11795
▁포스코	-11796
▁스트리밍	-11797
▁현실적으로	-11798
▁문제와	-11799
▁자영업	-11800
ector	-11801
년째	-11802
▁자사	-11803
▁작품은	-11804
▁추진할	-11805
리얼	-11806
영은	-11807
▁재미를	-11808
▁추진하는	-11809
▁지은	-11810
▁일상의	-11811
원하는	-11812
▁원활한	-11813
▁정상적으로	-11814
▁향상을	-11815
▁맥락	-11816
▁동일하게	-11817
bit	-11818
▁190	-11819
▁재개발	-11820
▁맛있게	-11821
▁제안을	-11822
▁세련된	-11823
▁지니고	-11824
대생	-11825
▁분기	-11826
▁곳곳에	-11827
▁뽑아	-11828
▁갈라	-11829
QL	-11830
▁항의	-11831
▁안정을	-11832
▁세척	-11833
▁한때	-11834
▁정부에	-11835
▁신장	-11836
▁주님의	-11837
▁불행	-11838
▁에디	-11839
▁하이브리	-11840
▁어렵지	-11841
▁싶은데	-11842
be	-11843
▁양념	-11844
▁ㅠ	-11845
▁모르게	-11846
▁fr	-11847
▁금요일	-11848
▁spect	-11849
공화	-11850
▁아픔	-11851
되었다고	-11852
▁손이	-11853
통상	-11854
보도	-11855
▁고난	-11856
▁클래스	-11857
▁크리에	-11858
▁반면에	-11859
▁다음달	-11860
-05	-11861
▁▲▲▲	-11862
▁가져다	-11863
즈니	-11864
▁페이지를	-11865
▁One	-11866
▁가성	-11867
▁개시	-11868
▁일본에서	-11869
▁얽	-11870
▁도내	-11871
▁선행	-11872
▁전신	-11873
▁Korea	-11874
▁도는	-11875
▁법률에	-11876
가게	-11877
▁탄력	-11878
▁매뉴얼	-11879
▁양쪽	-11880
▁60%	-11881
anced	-11882
▁비판했다	-11883
제도를	-11884
견이	-11885
▁top	-11886
▁정신적	-11887
EST	-11888
ient	-11889
오일	-11890
▁웨이	-11891
▁여파	-11892
▁조종	-11893
▁region	-11894
▁깔끔한	-11895
▁자랑하는	-11896
VID	-11897
했는데요	-11898
▁대결	-11899
▁systems	-11900
FA	-11901
▁비유	-11902
▁일상생활	-11903
-04	-11904
위원회에	-11905
신한	-11906
증과	-11907
▁확립	-11908
▁진행을	-11909
▁환경이	-11910
▁발생하지	-11911
▁업체가	-11912
▁꼼꼼히	-11913
작가	-11914
현장	-11915
▁말씀하셨	-11916
▁투자자	-11917
▁꼼꼼하게	-11918
▁제조업체	-11919
▁책상	-11920
▁손실을	-11921
어지	-11922
▁감싸	-11923
▁가능성은	-11924
▁내보	-11925
▁스캔	-11926
▁caus	-11927
▁정보와	-11928
▁결과로	-11929
▁학문	-11930
▁자원봉사	-11931
일러	-11932
▁분들을	-11933
▁엄격한	-11934
▁그래요	-11935
▁대립	-11936
▁사도	-11937
유지	-11938
겁니다	-11939
▁게스트	-11940
▁감축	-11941
▁근대	-11942
▁하나만	-11943
전과	-11944
▁hist	-11945
▁교육의	-11946
▁당신에게	-11947
앞으로	-11948
6.	-11949
▁72	-11950
▁immun	-11951
▁생리	-11952
lev	-11953
eration	-11954
졌지만	-11955
▁최악의	-11956
▁마디	-11957
▁이윤	-11958
▁전제	-11959
▁서로를	-11960
▁피할	-11961
▁맞아요	-11962
천만원	-11963
chie	-11964
▁유일하게	-11965
셨나요	-11966
▁개를	-11967
▁있었을	-11968
▁CPU	-11969
▁봤다	-11970
▁이젠	-11971
▁이용을	-11972
CA	-11973
▁호응	-11974
하게도	-11975
▁프랜차이즈	-11976
▁무작	-11977
▁영감을	-11978
▁아버지의	-11979
▁칼로	-11980
▁연구가	-11981
▁쿼	-11982
▁1970	-11983
▁불필요한	-11984
루션	-11985
▁실력	-11986
▁그렇지요	-11987
▁주민들의	-11988
▁싶다는	-11989
▁인식을	-11990
▁배상	-11991
▁상호작용	-11992
저기	-11993
▁고집	-11994
▁회원의	-11995
▁integ	-11996
▁2.0	-11997
측은	-11998
▁포인트를	-11999
▁저런	-12000
▁사설	-12001
▁편입	-12002
chool	-12003
▁review	-12004
▁긍정적	-12005
▁지방선거	-12006
채를	-12007
▁보러	-12008
▁당한	-12009
ention	-12010
기술을	-12011
▁지정된	-12012
▁물리적	-12013
▁새끼	-12014
▁good	-12015
▁삶은	-12016
▁cost	-12017
▁전액	-12018
▁올리브	-12019
▁입장이	-12020
로만	-12021
▁change	-12022
▁various	-12023
▁무의	-12024
▁바닥에	-12025
내지	-12026
전으로	-12027
▁심리적	-12028
▁fac	-12029
▁프로그램의	-12030
▁아내와	-12031
▁튜	-12032
▁나타납니다	-12033
▁말까지	-12034
▁찾아다니	-12035
▁열람	-12036
▁Intern	-12037
▁캠프	-12038
스틱	-12039
▁걸음	-12040
▁덴	-12041
케이션을	-12042
▁사업으로	-12043
▁밖의	-12044
▁밴드	-12045
▁넷플릭	-12046
▁서구	-12047
▁자동화	-12048
또한	-12049
▁여자가	-12050
▁;	-12051
했죠	-12052
▁영주	-12053
CL	-12054
▁1:1	-12055
였다고	-12056
▁경제가	-12057
▁근처에서	-12058
▁막대한	-12059
▁있기를	-12060
▁기다리는	-12061
▁치명	-12062
▁네트워크를	-12063
▁줄이기	-12064
▁반박	-12065
▁전달하는	-12066
▁하루를	-12067
▁배정	-12068
만달러	-12069
스쿨	-12070
▁물었다	-12071
▁거대	-12072
방에서	-12073
▁조직을	-12074
-02	-12075
▁유닛	-12076
▁떠나는	-12077
▁나누고	-12078
▁성장할	-12079
시킵니다	-12080
▁종합적으로	-12081
▁〈	-12082
▁가자	-12083
▁목욕	-12084
영의	-12085
론의	-12086
▁대학원	-12087
▁명령을	-12088
▁변화는	-12089
어질	-12090
▁예민	-12091
▁축복	-12092
▁교회의	-12093
▁연상	-12094
▁냉동	-12095
for	-12096
▁떠난	-12097
편을	-12098
시장을	-12099
▁인증을	-12100
▁개정안의	-12101
ession	-12102
▁북한은	-12103
회복	-12104
▁교수가	-12105
▁취미	-12106
▁백화점	-12107
▁치과	-12108
▁Exp	-12109
▁토마토	-12110
▁Dis	-12111
▁차기	-12112
▁탈퇴	-12113
▁환급	-12114
▁원칙을	-12115
강남	-12116
▁모두에게	-12117
▁터키	-12118
▁필름	-12119
취를	-12120
▁실종	-12121
되므로	-12122
▁삭감	-12123
▁의미하는	-12124
▁동아	-12125
▁입술	-12126
▁general	-12127
▁국민들이	-12128
▁구제	-12129
▁토토사이트	-12130
▁슬픔	-12131
▁Mo	-12132
▁정책이	-12133
▁소재로	-12134
▁모델은	-12135
▁동향	-12136
▁함으로써	-12137
hel	-12138
lex	-12139
▁당시에	-12140
▁서서히	-12141
▁지지를	-12142
역에	-12143
▁problem	-12144
▁되찾	-12145
답게	-12146
▁알바	-12147
지원센터	-12148
▁추첨	-12149
LL	-12150
▁낡은	-12151
사들은	-12152
▁장례	-12153
▁뭐라고	-12154
밀리	-12155
메뉴	-12156
변호	-12157
회로	-12158
▁세입	-12159
▁정보에	-12160
타는	-12161
▁군데	-12162
▁놓치지	-12163
▁거리두	-12164
▁알아서	-12165
▁먹으며	-12166
▁미사일	-12167
▁Op	-12168
▁같네요	-12169
▁일괄	-12170
▁에코	-12171
any	-12172
▁모르겠습니다	-12173
▁common	-12174
▁흡연	-12175
▁특징이다	-12176
레이터	-12177
▁br	-12178
▁97	-12179
▁조화	-12180
▁기업과	-12181
▁케어	-12182
▁있었다고	-12183
경의	-12184
▁두산	-12185
▁고민이	-12186
▁친구들이	-12187
▁것일까	-12188
▁소개합니다	-12189
▁경기에서	-12190
▁억울	-12191
▁하고요	-12192
▁결심	-12193
▁걸리는	-12194
▁우아	-12195
관리를	-12196
생이	-12197
치면	-12198
드릴게요	-12199
▁life	-12200
▁시그	-12201
▁앰	-12202
▁마시는	-12203
….	-12204
▁학생들에게	-12205
▁바퀴	-12206
▁체계적인	-12207
▁아키	-12208
▁불이	-12209
먹고	-12210
▁시위	-12211
https	-12212
▁문화적	-12213
▁한나라	-12214
▁클러	-12215
펙트	-12216
▁social	-12217
▁트럭	-12218
으로만	-12219
▁문제도	-12220
▁연수	-12221
▁움직임을	-12222
tis	-12223
전문가	-12224
▁놔	-12225
가야	-12226
▁Me	-12227
▁did	-12228
▁증상을	-12229
▁현실적인	-12230
▁rece	-12231
▁모은	-12232
▁flu	-12233
▁allow	-12234
▁가전	-12235
▁이루고	-12236
▁당당	-12237
ler	-12238
▁거제	-12239
▁댓글이	-12240
▁사운드	-12241
▁공존	-12242
▁Copyright	-12243
회의를	-12244
▁행정사무	-12245
▁people	-12246
▁보람	-12247
▁정하고	-12248
셀러	-12249
roup	-12250
▁사건은	-12251
스트라	-12252
▁^	-12253
할인	-12254
▁적용되는	-12255
화되고	-12256
▁젠	-12257
▁낭비	-12258
ists	-12259
▁우측	-12260
▁단어를	-12261
▁우리도	-12262
▁것들은	-12263
▁요리를	-12264
▁간부	-12265
▁대중교통	-12266
사전	-12267
ulture	-12268
▁direct	-12269
▁이지	-12270
▁엿	-12271
▁빈곤	-12272
▁자제	-12273
규제	-12274
안과	-12275
▁여드	-12276
비트	-12277
주문	-12278
▁아산	-12279
우리가	-12280
반응	-12281
창한	-12282
▁납품	-12283
▁down	-12284
▁마련해	-12285
▁사건에	-12286
▁주었다	-12287
▁지원합니다	-12288
▁고시	-12289
▁자유로운	-12290
지대	-12291
계산	-12292
▁미션	-12293
▁촉촉	-12294
osed	-12295
국어	-12296
▁나타났	-12297
▁무사	-12298
▁뜻이다	-12299
▁거라	-12300
▁열기	-12301
▁키워드	-12302
플릿	-12303
▁가난한	-12304
FT	-12305
▁의사가	-12306
-07	-12307
tual	-12308
▁예수님을	-12309
였어요	-12310
▁해체	-12311
▁총장	-12312
▁나설	-12313
▁체계를	-12314
▁좋아서	-12315
▁Data	-12316
jects	-12317
▁샐러	-12318
▁그레이	-12319
소방	-12320
▁이후에는	-12321
▁나타나고	-12322
차적으로	-12323
▁설명하는	-12324
▁주민들이	-12325
▁제품과	-12326
▁저렇게	-12327
▁외모	-12328
▁회장의	-12329
▁뿐입니다	-12330
▁무지	-12331
▁씨의	-12332
▁자의	-12333
▁사물	-12334
▁const	-12335
-03	-12336
콜릿	-12337
▁뛰어넘	-12338
정책을	-12339
▁주입	-12340
▁사람으로	-12341
▁중도	-12342
▁요한	-12343
MW	-12344
업이	-12345
▁소비자가	-12346
▁위치하고	-12347
▁56	-12348
▁원료	-12349
▁target	-12350
▁탈북	-12351
▁있답니다	-12352
▁possible	-12353
▁광양	-12354
▁못했습니다	-12355
wit	-12356
▁데이터가	-12357
▁얻게	-12358
기간을	-12359
조회	-12360
▁쉴	-12361
though	-12362
사법	-12363
▁EU	-12364
▁따르	-12365
화물	-12366
▁한일	-12367
거리가	-12368
행위를	-12369
▁첫날	-12370
▁월요일	-12371
▁단점	-12372
▁수주	-12373
▁막상	-12374
▁130	-12375
▁자체는	-12376
실장	-12377
▁눈물	-12378
▁그리는	-12379
▁드러나	-12380
▁총리는	-12381
▁군대	-12382
웃음	-12383
▁선물을	-12384
GE	-12385
년은	-12386
▁의장	-12387
▁맑은	-12388
▁프로세스	-12389
▁반짝	-12390
체계를	-12391
방의	-12392
▁남긴	-12393
사회적	-12394
▁드림	-12395
했으면	-12396
by	-12397
▁contrib	-12398
▁담당하는	-12399
미사	-12400
▁경찰이	-12401
▁스타일을	-12402
)-	-12403
▁3,000	-12404
▁팀은	-12405
▁손해를	-12406
▁행사가	-12407
▁지원에	-12408
전체	-12409
▁트렌드	-12410
▁키우	-12411
▁되지만	-12412
▁시점에서	-12413
경북	-12414
▁뭐냐	-12415
▁분들에게	-12416
량에	-12417
셨어요	-12418
▁그러고	-12419
▁알려드립니다	-12420
imum	-12421
▁achie	-12422
▁나왔습니다	-12423
▁이득	-12424
trip	-12425
▁적용해	-12426
▁지옥	-12427
▁의문	-12428
▁브랜드의	-12429
▁signal	-12430
플루	-12431
▁성분이	-12432
▁의원의	-12433
▁언어를	-12434
▁다큐	-12435
och	-12436
이렇게	-12437
군과	-12438
▁법무부	-12439
▁보행	-12440
▁산하	-12441
▁증진	-12442
놀이터	-12443
▁나가고	-12444
▁거울	-12445
▁들어가면	-12446
령을	-12447
▁퀴	-12448
▁이리	-12449
▁나만의	-12450
▁자연의	-12451
미의	-12452
▁메르	-12453
▁당시의	-12454
▁소박한	-12455
▁남의	-12456
▁해결을	-12457
되자	-12458
▁전쟁을	-12459
▁받아들여	-12460
▁처리하는	-12461
▁패턴을	-12462
▁드러났다	-12463
▁증가하는	-12464
▁나물	-12465
abor	-12466
▁대비해	-12467
▁110	-12468
▁워터	-12469
시지	-12470
▁국민들의	-12471
load	-12472
도서관	-12473
▁만나고	-12474
▁가요	-12475
등에	-12476
▁섹션	-12477
▁형식으로	-12478
▁쓰러	-12479
▁알아보기	-12480
▁김동	-12481
▁인문	-12482
▁중재	-12483
▁주장이	-12484
보상	-12485
로써	-12486
▁여지가	-12487
크는	-12488
▁고쳐	-12489
▁칼럼	-12490
▁어떨까	-12491
▁첨가	-12492
베리	-12493
▁컨테이너	-12494
▁지는	-12495
▁At	-12496
▁교훈	-12497
▁드물	-12498
-08	-12499
는데도	-12500
▁being	-12501
▁푹	-12502
▁디자인이	-12503
모바일	-12504
사들의	-12505
▁곽	-12506
▁폭행	-12507
PT	-12508
▁펄	-12509
▁열렸다	-12510
▁강도	-12511
기보다는	-12512
▁똑똑	-12513
▁확대를	-12514
화장	-12515
▁한눈에	-12516
▁주된	-12517
▁충격을	-12518
▁통증이	-12519
검색	-12520
생태	-12521
금과	-12522
▁일할	-12523
▁병원에	-12524
▁광명	-12525
▁철회	-12526
▁포스터	-12527
▁사용자는	-12528
하지도	-12529
중소	-12530
▁중순	-12531
년으로	-12532
▁Exam	-12533
러블	-12534
▁구매를	-12535
▁여의도	-12536
▁개통	-12537
니는	-12538
▁표현하는	-12539
▁내용입니다	-12540
쳤습니다	-12541
▁되기를	-12542
pg	-12543
일으	-12544
▁구리	-12545
eral	-12546
▁로컬	-12547
▁normal	-12548
▁유력	-12549
만큼은	-12550
앞으로도	-12551
▁factor	-12552
▁전수	-12553
▁한창	-12554
▁따르는	-12555
▁strateg	-12556
▁가능하고	-12557
▁주류	-12558
ales	-12559
▁bre	-12560
▁할당	-12561
▁설교	-12562
▁학과	-12563
켰다	-12564
▁싶었다	-12565
▁사이트의	-12566
▁노력하는	-12567
▁돌아오는	-12568
사카	-12569
▁놓여	-12570
▁줄을	-12571
▁tiss	-12572
▁서울의	-12573
▁간절	-12574
과정을	-12575
▁기간은	-12576
ars	-12577
▁정당한	-12578
▁땀을	-12579
▁별다른	-12580
▁시간의	-12581
▁53	-12582
▁퓨	-12583
▁다스	-12584
ior	-12585
했었다	-12586
▁진행해	-12587
▁없던	-12588
▁죽음을	-12589
경험	-12590
니즘	-12591
▁용도로	-12592
▁선택하고	-12593
▁돌아온	-12594
억을	-12595
▁반대하는	-12596
▁출현	-12597
만원의	-12598
ume	-12599
▁So	-12600
▁진동	-12601
7,	-12602
▁모텔	-12603
▁URL	-12604
▁경쟁을	-12605
▁사용될	-12606
▁일들이	-12607
alk	-12608
▁보여줄	-12609
▁공간에	-12610
▁좋은데	-12611
▁포함됩니다	-12612
지역에	-12613
▁근거로	-12614
▁again	-12615
▁영상이	-12616
시청	-12617
▁발생했다	-12618
▁진로	-12619
▁major	-12620
퍼런스	-12621
▁공유하는	-12622
▁씨앗	-12623
▁근거가	-12624
▁바라보	-12625
해야만	-12626
day	-12627
성년	-12628
▁걸고	-12629
ledge	-12630
)|	-12631
▁상해	-12632
oma	-12633
지나	-12634
▁계정을	-12635
▁심플	-12636
▁관계에	-12637
ently	-12638
▁경쟁이	-12639
Con	-12640
▁대표의	-12641
▁소식이	-12642
▁중입니다	-12643
▁모두를	-12644
▁이종	-12645
▁요구에	-12646
▁중대한	-12647
▁range	-12648
은행이	-12649
▁press	-12650
▁약을	-12651
▁신약	-12652
▁지명	-12653
▁계시는	-12654
▁많아요	-12655
▁distribution	-12656
▁어린이집	-12657
▁▷	-12658
▁되는지	-12659
▁확보를	-12660
▁콘서트	-12661
▁students	-12662
▁parameters	-12663
▁지고	-12664
환자	-12665
▁여부에	-12666
론이	-12667
하길	-12668
▁숙련	-12669
▁딥	-12670
생각	-12671
시리즈	-12672
▁되나요	-12673
▁에피소	-12674
디스	-12675
음식	-12676
▁원주	-12677
▁learning	-12678
▁신비	-12679
▁More	-12680
come	-12681
▁집합	-12682
▁코어	-12683
하늘	-12684
ble	-12685
▁문화가	-12686
▁실적을	-12687
▁속한	-12688
▁책정	-12689
▁아버지가	-12690
발이	-12691
▁끝났	-12692
▁벤치	-12693
면은	-12694
대한민	-12695
▁처리를	-12696
▁위치해	-12697
감의	-12698
▁설치를	-12699
▁필요성을	-12700
냐는	-12701
imes	-12702
속의	-12703
번의	-12704
▁기다리	-12705
86	-12706
▁소독	-12707
▁점포	-12708
우드	-12709
1]	-12710
▁구청	-12711
은행의	-12712
▁덤	-12713
▁MC	-12714
▁하기도	-12715
▁적용됩니다	-12716
▁급격히	-12717
▁따져	-12718
▁있어서는	-12719
▁눈앞	-12720
전국	-12721
가에서	-12722
▁머리가	-12723
▁넣는	-12724
▁주제를	-12725
▁관내	-12726
▁설명하고	-12727
▁미루	-12728
서류	-12729
▁SM	-12730
▁사모	-12731
istics	-12732
▁적용된	-12733
ero	-12734
▁배를	-12735
▁시점에	-12736
ather	-12737
▁four	-12738
▁영토	-12739
▁세균	-12740
▁어리	-12741
▁차분	-12742
▁크레	-12743
하고도	-12744
▁규제를	-12745
목표	-12746
▁시기를	-12747
▁뉴질랜드	-12748
▁성격을	-12749
▁지리	-12750
▁소송을	-12751
DI	-12752
ense	-12753
▁코팅	-12754
▁안동	-12755
았다는	-12756
▁건강하게	-12757
usiness	-12758
▁화산	-12759
러닝	-12760
▁도메인	-12761
▁mg	-12762
▁사양	-12763
강을	-12764
▁질의를	-12765
▁추락	-12766
▁비로소	-12767
▁자회사	-12768
▁참석했다	-12769
당시	-12770
▁구사	-12771
▁국산	-12772
▁작품이	-12773
▁PS	-12774
▁시작을	-12775
▁알코올	-12776
▁Rec	-12777
▁수험	-12778
▁갇	-12779
▁비중을	-12780
교류	-12781
▁먹은	-12782
▁내부에	-12783
이었지만	-12784
▁의혹을	-12785
선물	-12786
센티브	-12787
▁help	-12788
TH	-12789
돌이	-12790
▁예로	-12791
(9	-12792
인한	-12793
클래	-12794
▁가량	-12795
▁before	-12796
ump	-12797
▁이태	-12798
▁규모를	-12799
▁학생이	-12800
▁어렵다는	-12801
▁획기	-12802
▁고스	-12803
▁행사에	-12804
만원으로	-12805
▁구름	-12806
▁습득	-12807
▁ben	-12808
▁역할이	-12809
▁평소에	-12810
▁램	-12811
II	-12812
컨대	-12813
▁54	-12814
▁콜걸	-12815
▁원하시는	-12816
단에서	-12817
▁분들께	-12818
▁부사	-12819
▁이들에게	-12820
▁주민등록	-12821
▁SC	-12822
▁출고	-12823
형에	-12824
▁이용자가	-12825
▁◦	-12826
가량	-12827
돈을	-12828
▁CS	-12829
▁깔끔하게	-12830
▁물론이고	-12831
으실	-12832
티를	-12833
골프	-12834
사업은	-12835
▁대거	-12836
▁read	-12837
▁꿈꾸는	-12838
▁의미로	-12839
▁public	-12840
▁힙	-12841
들만	-12842
olic	-12843
▁보살	-12844
▁잇는	-12845
▁educ	-12846
▁accur	-12847
▁될까	-12848
▁이라크	-12849
▁고혈압	-12850
▁마음은	-12851
▁미흡	-12852
▁상품으로	-12853
▁Mod	-12854
할때	-12855
▁신속한	-12856
했어	-12857
자리에	-12858
▁평일	-12859
▁이어졌다	-12860
ason	-12861
▁activ	-12862
만여	-12863
▁이루어지고	-12864
▁sample	-12865
적일	-12866
▁귀를	-12867
▁즐기고	-12868
▁확인한	-12869
▁분석한	-12870
▁자격을	-12871
해결	-12872
eff	-12873
▁여기에는	-12874
목으로	-12875
▁선보인	-12876
ength	-12877
중이	-12878
▁페르	-12879
▁particular	-12880
▁집권	-12881
▁mass	-12882
▁기록하고	-12883
let	-12884
▁오바마	-12885
▁자기의	-12886
▁버려	-12887
▁꾸며	-12888
▁available	-12889
몬드	-12890
▁합니까	-12891
▁서울에서	-12892
▁이외의	-12893
티지	-12894
▁이곳에	-12895
▁전문위원	-12896
다지	-12897
▁발병	-12898
▁않느냐	-12899
▁받습니다	-12900
▁gra	-12901
▁mut	-12902
▁확인이	-12903
▁선제	-12904
▁됩니까	-12905
▁스웨덴	-12906
▁사안	-12907
▁재료를	-12908
79	-12909
▁사료	-12910
회관	-12911
▁간략	-12912
erc	-12913
▁외면	-12914
▁크지	-12915
anti	-12916
▁효과는	-12917
amily	-12918
OO	-12919
abl	-12920
▁재건축	-12921
▁추천해	-12922
▁compon	-12923
▁주문이	-12924
▁원에	-12925
▁Comp	-12926
▁확인됐다	-12927
▁눈치	-12928
드린	-12929
▁선택합니다	-12930
▁캠퍼	-12931
▁대학의	-12932
ture	-12933
andom	-12934
▁도약	-12935
수급	-12936
▁성격이	-12937
▁의정부	-12938
발생	-12939
밥을	-12940
의가	-12941
▁나지	-12942
▁서부	-12943
ters	-12944
▁정리를	-12945
Re	-12946
▁시트	-12947
피탈	-12948
정원	-12949
▁중구	-12950
▁파우	-12951
ava	-12952
▁폭넓	-12953
▁잃은	-12954
시죠	-12955
화문	-12956
▁이천	-12957
▁복제	-12958
스러워	-12959
▁반갑	-12960
겨울	-12961
공헌	-12962
tor	-12963
▁뛰어들	-12964
▁김재	-12965
주시고	-12966
▁아이들에게	-12967
아아	-12968
함께	-12969
ecial	-12970
▁like	-12971
▁분석했다	-12972
▁ret	-12973
▁분포	-12974
▁인터뷰를	-12975
▁서비스로	-12976
▁내려가	-12977
▁피아노	-12978
식에서	-12979
▁Sec	-12980
RP	-12981
▁줄이	-12982
▁적당히	-12983
▁가까워	-12984
▁불러일으	-12985
▁considered	-12986
▁조건이	-12987
유치	-12988
▁들어갔다	-12989
▁일곱	-12990
취업	-12991
▁면세	-12992
증은	-12993
▁ㅋㅋㅋ	-12994
▁청춘	-12995
▁▼	-12996
▁역사가	-12997
ources	-12998
▁말하자면	-12999
▁훔	-13000
▁될지	-13001
종은	-13002
▁발언을	-13003
▁ox	-13004
▁토끼	-13005
▁확인하기	-13006
▁deg	-13007
놨다	-13008
▁실수를	-13009
▁이루어져	-13010
▁살펴볼	-13011
▁하라	-13012
▁해고	-13013
▁피트니스	-13014
페라	-13015
홍보	-13016
▁구입할	-13017
▁point	-13018
urity	-13019
▁모르지만	-13020
외국인	-13021
▁여기가	-13022
▁배경으로	-13023
▁호남	-13024
▁편이다	-13025
▁실력을	-13026
닉스	-13027
편에	-13028
▁불이익	-13029
거야	-13030
▁신세계	-13031
▁비교하여	-13032
▁썩	-13033
발표	-13034
▁그것에	-13035
▁힘들다	-13036
▁Our	-13037
▁도저히	-13038
소개팅	-13039
▁전시회	-13040
▁stress	-13041
▁취할	-13042
▁신생	-13043
▁피의	-13044
▁positive	-13045
공유	-13046
용이	-13047
▁경제학	-13048
론은	-13049
속으로	-13050
서버	-13051
▁라운	-13052
▁익산	-13053
▁아직은	-13054
▁저에게	-13055
▁예언	-13056
후의	-13057
▁숨을	-13058
tv	-13059
통일	-13060
▁가꾸	-13061
그런데	-13062
▁모델이	-13063
막이	-13064
블록	-13065
▁바와	-13066
▁성폭	-13067
통화	-13068
▁갤러리	-13069
▁양을	-13070
▁국가에서	-13071
▁페스티벌	-13072
▁생각해요	-13073
증의	-13074
CE	-13075
이어야	-13076
▁abs	-13077
▁rati	-13078
▁주의를	-13079
▁달라질	-13080
▁하이브리드	-13081
노인	-13082
▁영문	-13083
▁비율을	-13084
▁빨라	-13085
▁생일	-13086
▁블로그를	-13087
이동	-13088
▁교황	-13089
정부의	-13090
▁찾아서	-13091
▁대한항공	-13092
▁나간	-13093
▁백업	-13094
▁NH	-13095
팀의	-13096
rit	-13097
▁차원	-13098
▁중점을	-13099
▁강남안마	-13100
▁fin	-13101
▁보너스	-13102
▁developed	-13103
정리	-13104
▁free	-13105
▁바에	-13106
▁개인회생	-13107
naver	-13108
▁스카	-13109
▁진흥	-13110
.....	-13111
▁길에	-13112
fication	-13113
억달러	-13114
▁어둠	-13115
▁조금이라도	-13116
드리며	-13117
특례	-13118
늦게	-13119
▁유족	-13120
법령	-13121
▁최저임금	-13122
8,	-13123
러는	-13124
▁클린	-13125
▁늘어날	-13126
유아	-13127
장인	-13128
정당	-13129
▁록	-13130
파워	-13131
▁란	-13132
▁정통	-13133
▁만들었습니다	-13134
▁있었다는	-13135
▁쓰면	-13136
동구	-13137
▁pattern	-13138
▁소액	-13139
▁management	-13140
ides	-13141
▁늦은	-13142
▁노동조합	-13143
▁밖에서	-13144
렌지	-13145
▁이라는	-13146
▁자원을	-13147
▁들지	-13148
▁짧게	-13149
▁음반	-13150
▁경제를	-13151
▁회원은	-13152
▁관리하고	-13153
▁엘리베이터	-13154
시에서	-13155
▁되는데요	-13156
▁방지하기	-13157
출판	-13158
time	-13159
▁매칭	-13160
라인을	-13161
▁적도	-13162
▁찢	-13163
▁환자는	-13164
aren	-13165
권으로	-13166
▁둘이	-13167
▁코스피	-13168
urb	-13169
▁연설	-13170
▁의거	-13171
.13	-13172
▁긴장을	-13173
▁understand	-13174
▁초고속	-13175
Pro	-13176
지검	-13177
▁필요하지	-13178
요청	-13179
▁아저	-13180
▁전형적인	-13181
ended	-13182
보겠습니다	-13183
▁contr	-13184
▁모양을	-13185
▁장점을	-13186
연수	-13187
▁그러자	-13188
▁고객님의	-13189
▁숨어	-13190
▁12.	-13191
▁되기도	-13192
▁던져	-13193
▁있기에	-13194
▁조국	-13195
▁off	-13196
▁이로써	-13197
▁참석해	-13198
▁찾아볼	-13199
작성자	-13200
▁선수들이	-13201
꺼번에	-13202
▁다문화	-13203
▁모델로	-13204
물론	-13205
▁험	-13206
NG	-13207
▁get	-13208
지다	-13209
▁자료가	-13210
즈가	-13211
제약	-13212
▁공주	-13213
연합회	-13214
.17	-13215
▁다이아	-13216
▁2030	-13217
어떤	-13218
▁커피를	-13219
▁설명할	-13220
▁전라	-13221
▁예수님이	-13222
사항이	-13223
▁84	-13224
▁일어났	-13225
▁한식	-13226
ift	-13227
▁역사와	-13228
▁iOS	-13229
▁사소한	-13230
▁없었고	-13231
▁집안의	-13232
▁것이란	-13233
거진	-13234
▁several	-13235
게시	-13236
▁사찰	-13237
▁비해서	-13238
퇴근	-13239
세탁	-13240
▁추모	-13241
▁이후에도	-13242
▁기업으로	-13243
졌으며	-13244
▁인류의	-13245
▁파워볼	-13246
▁블로	-13247
gine	-13248
sy	-13249
▁중대	-13250
▁집이	-13251
▁보호하기	-13252
▁어디로	-13253
골을	-13254
▁오피	-13255
▁내면	-13256
들한테	-13257
▁무섭	-13258
▁힘입	-13259
2010	-13260
▁브리핑	-13261
astic	-13262
파를	-13263
▁보냈다	-13264
sequ	-13265
▁압력	-13266
~6	-13267
교육청	-13268
▁시설에	-13269
▁사용해야	-13270
▁실제로는	-13271
▁한의	-13272
aging	-13273
▁할수	-13274
▁존재한다	-13275
였으며	-13276
▁되겠다	-13277
▁힌	-13278
▁프런트	-13279
테이션	-13280
CTV	-13281
절에	-13282
▁때보다	-13283
▁이길	-13284
▁phase	-13285
▁우리나라는	-13286
하하	-13287
▁관람객	-13288
개월간	-13289
▁해보고	-13290
▁내어	-13291
외선	-13292
▁MB	-13293
▁계급	-13294
▁관리할	-13295
▁결정했다	-13296
▁증대	-13297
▁크로	-13298
▁딴	-13299
▁투기	-13300
uture	-13301
▁반사	-13302
▁이영	-13303
▁방영	-13304
▁사용되고	-13305
역의	-13306
▁유망	-13307
▁분야를	-13308
시스템을	-13309
▁마찬가지다	-13310
▁날을	-13311
▁대단한	-13312
▁loss	-13313
-06	-13314
▁되길	-13315
▁놀랍	-13316
▁자신과	-13317
▁dat	-13318
▁presented	-13319
▁조언을	-13320
▁돈으로	-13321
▁유아용	-13322
▁틀어	-13323
습을	-13324
▁제품입니다	-13325
프레스	-13326
▁되었을	-13327
▁과다	-13328
▁외식	-13329
▁연구원은	-13330
▁샴	-13331
▁조금은	-13332
▁젊은이	-13333
▁IM	-13334
주셔서	-13335
▁결혼을	-13336
ries	-13337
▁자세를	-13338
▁조합원	-13339
roll	-13340
▁구석	-13341
▁금액은	-13342
▁얼굴에	-13343
▁컷	-13344
▁난민	-13345
▁원고	-13346
▁한국이	-13347
▁개가	-13348
주의의	-13349
▁한꺼번에	-13350
▁population	-13351
▁본사	-13352
▁봤습니다	-13353
▁생산하는	-13354
▁팔레	-13355
영리	-13356
▁룩	-13357
▁즐기며	-13358
▁제작한	-13359
듯한	-13360
▁장악	-13361
루미늄	-13362
▁의미에서	-13363
팩트	-13364
▁침묵	-13365
▁되고요	-13366
일지	-13367
처벌	-13368
▁영원한	-13369
사한	-13370
▁비행기	-13371
왔고	-13372
▁분석하고	-13373
▁기어	-13374
▁눈물을	-13375
시켜야	-13376
▁이용이	-13377
▁현장의	-13378
▁도중	-13379
▁회담	-13380
ances	-13381
▁ㄱ	-13382
▁다녔	-13383
▁투여	-13384
▁유인	-13385
니가	-13386
▁찍고	-13387
믹스	-13388
▁전하는	-13389
▁기관의	-13390
▁재미있게	-13391
▁유럽의	-13392
▁짙	-13393
▁(3	-13394
▁가져올	-13395
▁과학적	-13396
▁인센티브	-13397
매가	-13398
▁지체	-13399
▁est	-13400
▁양국	-13401
▁앞장서	-13402
개소	-13403
▁석사	-13404
▁해를	-13405
▁하셔야	-13406
57	-13407
▁엽	-13408
▁크롬	-13409
▁역사의	-13410
▁공정거래	-13411
▁돕기	-13412
ison	-13413
▁견해	-13414
▁content	-13415
▁hand	-13416
▁흰색	-13417
▁돈은	-13418
텐데	-13419
티드	-13420
▁열려	-13421
▁주문을	-13422
▁앞으로는	-13423
▁image	-13424
▁장관이	-13425
▁shows	-13426
▁노선	-13427
과세	-13428
▁제도가	-13429
환불	-13430
▁보이며	-13431
▁사이트는	-13432
▁윤석열	-13433
▁표현이	-13434
▁뚝	-13435
▁대면	-13436
▁많다는	-13437
▁이상은	-13438
▁사용한다	-13439
▁원자력	-13440
ised	-13441
ressed	-13442
▁합의를	-13443
되어서	-13444
▁잡지	-13445
▁안쪽	-13446
▁예쁘게	-13447
▁목격	-13448
▁체인	-13449
쓰기	-13450
▁해설	-13451
▁아니기	-13452
▁사이드	-13453
레드	-13454
▁03	-13455
▁분당	-13456
▁비닐	-13457
탄소	-13458
ulations	-13459
들입니다	-13460
년과	-13461
▁경제의	-13462
▁방식에	-13463
오오오오	-13464
▁Inter	-13465
▁자바	-13466
meric	-13467
▁한도	-13468
▁made	-13469
▁공유하고	-13470
oo	-13471
▁회피	-13472
▁뜬	-13473
▁통치	-13474
▁한국경제	-13475
▁위원이	-13476
▁광범위한	-13477
▁UN	-13478
리조	-13479
검토	-13480
▁신혼	-13481
.16	-13482
▁지키고	-13483
▁Ⅱ	-13484
경기도	-13485
우지	-13486
▁전압	-13487
파의	-13488
▁지인	-13489
▁야당	-13490
▁방법과	-13491
걸음	-13492
지급	-13493
▁이념	-13494
▁특례	-13495
▁강서	-13496
▁용서	-13497
▁스코	-13498
내야	-13499
▁모순	-13500
▁여객	-13501
▁등장한	-13502
▁썼다	-13503
회의에서	-13504
이러	-13505
▁vir	-13506
면허	-13507
그래서	-13508
▁ㅋ	-13509
널드	-13510
▁오로지	-13511
▁난다	-13512
방문	-13513
미노	-13514
▁혼자서	-13515
ators	-13516
▁나선다	-13517
하다면	-13518
▁보이지만	-13519
▁시야	-13520
▁학교를	-13521
▁저자는	-13522
▁오를	-13523
▁날카	-13524
▁총회	-13525
▁늘어나는	-13526
히지	-13527
▁설명이	-13528
ros	-13529
러를	-13530
▁아카데미	-13531
▁66	-13532
2012	-13533
▁컴퓨터를	-13534
▁크기를	-13535
▁끝나면	-13536
▁작업에	-13537
실적	-13538
▁심어	-13539
두를	-13540
▁교차	-13541
볼까	-13542
▁만나게	-13543
▁갈등이	-13544
▁일련의	-13545
▁스스로를	-13546
▁사랑이	-13547
▁동영상을	-13548
▁인정하는	-13549
▁상주	-13550
▁Aut	-13551
▁관광지	-13552
스톤	-13553
용을	-13554
▁하나에	-13555
▁기업들의	-13556
▁있는지를	-13557
모텔	-13558
▁착한	-13559
▁역사상	-13560
설정	-13561
스럽다	-13562
▁쿠팡	-13563
”(	-13564
LG	-13565
▁야기	-13566
과장	-13567
회사의	-13568
▁구워	-13569
▁장려	-13570
▁나갔	-13571
▁부가가	-13572
▁자리가	-13573
아직	-13574
▁고의	-13575
▁분배	-13576
tle	-13577
▁카테고리	-13578
▁--	-13579
팀을	-13580
풍이	-13581
▁개발하는	-13582
▁확진자가	-13583
▁카톡	-13584
커피	-13585
▁감자	-13586
▁사랑과	-13587
▁염두에	-13588
▁후보의	-13589
ㅡㅡ	-13590
▁부자	-13591
▁구성하는	-13592
▁모인	-13593
▁발음	-13594
▁임기	-13595
▁중점	-13596
▁재산을	-13597
▁부재	-13598
▁주제에	-13599
▁클릭합니다	-13600
▁클릭하면	-13601
마일	-13602
2013	-13603
▁못합니다	-13604
▁북부	-13605
▁11.	-13606
▁파주	-13607
▁안된다	-13608
▁중국과	-13609
단위	-13610
▁시설이	-13611
EX	-13612
▁일으킬	-13613
▁나섰	-13614
▁사태가	-13615
▁거주하는	-13616
민은	-13617
▁변신	-13618
▁super	-13619
▁붙잡	-13620
▁blood	-13621
▁협박	-13622
파가	-13623
과학기술	-13624
▁수준이다	-13625
)·	-13626
▁흩	-13627
익을	-13628
편이	-13629
▁안의	-13630
▁농어	-13631
▁알아두	-13632
Sc	-13633
캠프	-13634
▁홈페이지에	-13635
▁체계적으로	-13636
사스	-13637
위생	-13638
▁아메리카	-13639
▁앉아서	-13640
주일	-13641
▁마르	-13642
▁오리지	-13643
▁천재	-13644
▁솜	-13645
▁입체	-13646
▁태도	-13647
▁남편과	-13648
정보통신	-13649
백화점	-13650
제품을	-13651
▁특화	-13652
.<	-13653
▁설치되어	-13654
벚꽃	-13655
▁자고	-13656
레인지	-13657
정부가	-13658
vern	-13659
▁추천합니다	-13660
▁67	-13661
▁공정한	-13662
▁알아보겠습니다	-13663
▁140	-13664
▁제이	-13665
▁있겠죠	-13666
층은	-13667
▁주저	-13668
▁consist	-13669
병이	-13670
▁미군	-13671
▁것이냐	-13672
▁교회를	-13673
▁그랜드	-13674
부대	-13675
▁실험을	-13676
▁무장	-13677
구리	-13678
▁국내에	-13679
▁비율은	-13680
▁여유가	-13681
▁평온	-13682
till	-13683
▁공사를	-13684
▁기술로	-13685
▁어딘	-13686
▁inj	-13687
▁미치지	-13688
▁pass	-13689
계는	-13690
▁파산	-13691
▁만료	-13692
▁말았다	-13693
▁Tech	-13694
▁온실	-13695
▁지붕	-13696
▁가능하도록	-13697
orph	-13698
▁김용	-13699
▁98	-13700
▁내비	-13701
omy	-13702
▁얼음	-13703
▁찾습니다	-13704
▁way	-13705
lied	-13706
▁구할	-13707
▁매개	-13708
▁인식이	-13709
afe	-13710
▁상정	-13711
▁호텔에	-13712
▁조치가	-13713
▁나한테	-13714
▁유학	-13715
▁일로	-13716
53	-13717
▁글로	-13718
드린다	-13719
▁인구가	-13720
▁선보였다	-13721
▁장소를	-13722
▁유방	-13723
▁놀이터	-13724
▁항목을	-13725
▁불만	-13726
pport	-13727
▁69	-13728
~10	-13729
▁원작	-13730
▁착각	-13731
▁파손	-13732
▁혈압	-13733
▁tre	-13734
▁오르는	-13735
됐다는	-13736
▁랜드	-13737
신경	-13738
▁이력	-13739
▁두려움	-13740
유가	-13741
▁gr	-13742
▁바나	-13743
▁아가	-13744
세종	-13745
▁크기의	-13746
▁무력	-13747
▁어때	-13748
▁넣은	-13749
▁후보를	-13750
▁무엇일까	-13751
▁쳐다	-13752
▁해명	-13753
▁production	-13754
▁그녀를	-13755
▁다채로운	-13756
▁능숙	-13757
▁이미지가	-13758
▁않으니	-13759
▁대표이사	-13760
▁갱신	-13761
▁끔	-13762
▁찾지	-13763
문제를	-13764
▁focus	-13765
▁statis	-13766
장도	-13767
▁경로를	-13768
▁보고서는	-13769
fl	-13770
▁세력	-13771
▁길은	-13772
기까지	-13773
▁일어나고	-13774
▁웃음을	-13775
▁지적을	-13776
▁사실에	-13777
▁지역주민	-13778
▁건물을	-13779
▁토큰	-13780
mission	-13781
▁퀘	-13782
ope	-13783
respond	-13784
▁교회가	-13785
▁차량의	-13786
되었다는	-13787
▁높였다	-13788
▁difference	-13789
▁식의	-13790
▁이어진	-13791
▁않았다는	-13792
▁현대자동차	-13793
RS	-13794
주도	-13795
통이	-13796
▁자를	-13797
▁철저하게	-13798
▁해군	-13799
새로운	-13800
▁살기	-13801
▁정렬	-13802
연은	-13803
verse	-13804
▁68	-13805
리자	-13806
▁점수	-13807
동기	-13808
▁빛이	-13809
▁recent	-13810
▁같으면	-13811
▁신청할	-13812
hemical	-13813
▁상시	-13814
▁철거	-13815
하시길	-13816
공감	-13817
▁농구	-13818
▁비극	-13819
▁better	-13820
위원은	-13821
▁협조를	-13822
외과	-13823
▁스티커	-13824
▁cm	-13825
▁모양의	-13826
▁neg	-13827
아무	-13828
억이	-13829
이날	-13830
▁그다지	-13831
▁먹어야	-13832
▁알리고	-13833
▁이재명	-13834
▁days	-13835
▁시민단체	-13836
▁참여하고	-13837
▁보좌	-13838
멘트	-13839
▁개념이	-13840
▁기업들은	-13841
▁사용자에게	-13842
mon	-13843
▁화면에	-13844
▁믿습니다	-13845
수량	-13846
중개	-13847
▁냉각	-13848
▁소개하는	-13849
문화를	-13850
▁자산을	-13851
교육의	-13852
▁기대할	-13853
▁대부	-13854
▁홈런	-13855
▁시흥	-13856
▁원본	-13857
▁초월	-13858
통제	-13859
▁타는	-13860
▁even	-13861
렉트	-13862
졌어요	-13863
uit	-13864
▁Cor	-13865
▁Mac	-13866
▁전환을	-13867
▁처리할	-13868
▁판정을	-13869
햇살론	-13870
▁초콜릿	-13871
▁떨어질	-13872
▁생각한	-13873
길에	-13874
▁160	-13875
▁캐릭터를	-13876
▁출신의	-13877
균형	-13878
어와	-13879
pose	-13880
세와	-13881
나서	-13882
▁짓는	-13883
▁인정하고	-13884
▁끝날	-13885
▁경험할	-13886
▁모의	-13887
▁상식	-13888
▁얻었다	-13889
▁전극	-13890
▁중국에	-13891
▁투자하는	-13892
쓰고	-13893
▁이은	-13894
▁자칫	-13895
▁귀국	-13896
▁금강	-13897
망의	-13898
▁질문이	-13899
▁하도	-13900
▁신고를	-13901
무가	-13902
▁면허	-13903
▁일본에	-13904
파는	-13905
▁편한	-13906
▁예상되는	-13907
▁갖췄	-13908
▁밸런	-13909
리니	-13910
▁뱀	-13911
▁승부	-13912
▁지역으로	-13913
▁사유로	-13914
▁오퍼	-13915
▁걸으며	-13916
▁“(	-13917
▁애매	-13918
▁제공하며	-13919
LS	-13920
▁Us	-13921
▁습관을	-13922
▁끝으로	-13923
▁상황입니다	-13924
▁역임	-13925
▁탐구	-13926
▁카메라를	-13927
▁고려한	-13928
▁맞추어	-13929
▁이후의	-13930
▁벌어진	-13931
▁분열	-13932
▁포켓	-13933
▁whe	-13934
▁김민	-13935
▁차트	-13936
관절	-13937
▁넣을	-13938
xim	-13939
묘한	-13940
▁4000	-13941
▁수백만	-13942
.29	-13943
스타일	-13944
겠지요	-13945
사상	-13946
▁김기	-13947
uted	-13948
▁마운틴	-13949
ering	-13950
▁돌이	-13951
▁디저	-13952
▁흥행	-13953
▁정도에	-13954
희는	-13955
▁아베	-13956
▁우려를	-13957
▁사실입니다	-13958
컴퓨터	-13959
사업으로	-13960
▁분명한	-13961
▁weight	-13962
트랙	-13963
조로	-13964
▁앞선	-13965
일로부터	-13966
집이	-13967
▁auth	-13968
▁부유	-13969
▁노력하겠다	-13970
▁감소한	-13971
우주	-13972
이야기	-13973
▁많기	-13974
DS	-13975
▁문화의	-13976
렸지만	-13977
▁안됩니다	-13978
▁알아보고	-13979
▁벡	-13980
▁스프링	-13981
▁편의를	-13982
커스	-13983
oot	-13984
▁표현할	-13985
▁금전	-13986
▁장면을	-13987
▁전자상거래	-13988
마한	-13989
▁돌봄	-13990
▁어색	-13991
▁과제를	-13992
▁요청한	-13993
▁치료가	-13994
계열	-13995
▁일각	-13996
으려	-13997
▁안팎	-13998
▁작가는	-13999
▁마포	-14000
위원장은	-14001
▁nec	-14002
▁세션	-14003
▁발주	-14004
▁소프트웨어를	-14005
▁김경	-14006
▁시중	-14007
시설이	-14008
▁궁금해	-14009
▁작고	-14010
▁찬양	-14011
▁대통령을	-14012
▁Web	-14013
▁63	-14014
▁implement	-14015
명이다	-14016
방안을	-14017
▁다닐	-14018
▁조율	-14019
▁겨냥	-14020
▁민감한	-14021
▁써서	-14022
만간	-14023
▁왠지	-14024
▁캄	-14025
담보대출	-14026
▁유지하기	-14027
▁김진	-14028
▁활발한	-14029
▁효율성을	-14030
59	-14031
▁지수	-14032
aps	-14033
기업이	-14034
▁없으니	-14035
방울	-14036
▁선택이	-14037
▁바꾼	-14038
▁수료	-14039
▁방문객	-14040
▁증여	-14041
▁요인이	-14042
▁University	-14043
▁학생들을	-14044
▁읍	-14045
▁나열	-14046
▁꾸준한	-14047
▁ㅋㅋㅋㅋ	-14048
▁여기저기	-14049
▁매치	-14050
하듯	-14051
엑스	-14052
▁남편이	-14053
▁평면	-14054
▁success	-14055
전도	-14056
▁소지	-14057
▁62	-14058
▁인식하고	-14059
티켓	-14060
▁지역이	-14061
일수록	-14062
▁파기	-14063
빨리	-14064
▁신학	-14065
▁생명의	-14066
▁머리카락	-14067
동은	-14068
▁냄새가	-14069
근한	-14070
▁토크	-14071
▁가정의	-14072
는지를	-14073
▁예뻐	-14074
▁설립된	-14075
▁허가를	-14076
▁공간으로	-14077
▁공적	-14078
빌리티	-14079
▁늙	-14080
▁내부의	-14081
▁걸친	-14082
원칙	-14083
전력	-14084
산과	-14085
ftware	-14086
text	-14087
▁nan	-14088
▁이전의	-14089
ument	-14090
첨단	-14091
▁대대	-14092
▁상단	-14093
other	-14094
▁8,	-14095
조리	-14096
▁respons	-14097
▁Hotel	-14098
▁탈락	-14099
▁확대해	-14100
▁브라운	-14101
▁코스닥	-14102
▁로고	-14103
▁solution	-14104
▁입구	-14105
▁보냅니다	-14106
▁±	-14107
▁마이크로소프트	-14108
▁어디까지	-14109
▁떨어뜨	-14110
▁그분	-14111
▁make	-14112
▁흔한	-14113
.22	-14114
적으로도	-14115
▁설명이다	-14116
▁않거나	-14117
립선	-14118
부품	-14119
▁잃고	-14120
▁정책의	-14121
▁터널	-14122
▁의미는	-14123
▁수혜	-14124
▁식량	-14125
용량	-14126
orth	-14127
▁성적을	-14128
▁하느냐	-14129
▁coun	-14130
▁소중히	-14131
▁비자	-14132
atus	-14133
▁브러	-14134
퍼센트	-14135
▁무엇보다도	-14136
▁도보	-14137
▁쉬는	-14138
▁적혀	-14139
▁1960	-14140
ules	-14141
▁두꺼	-14142
ke	-14143
▁강화하는	-14144
▁방문하는	-14145
상환	-14146
▁버린	-14147
▁트래픽	-14148
무기	-14149
▁신중하게	-14150
▁햇빛	-14151
▁하루의	-14152
▁편의점	-14153
▁연구의	-14154
▁안을	-14155
UM	-14156
▁국장님	-14157
▁모으고	-14158
▁이용하면	-14159
▁상품에	-14160
istance	-14161
▁삐	-14162
나눔	-14163
▁낙찰	-14164
▁My	-14165
▁콘크	-14166
▁쉼	-14167
▁음식점	-14168
▁공간에서	-14169
금에	-14170
▁내기	-14171
.21	-14172
▁해결해	-14173
▁마스크를	-14174
▁간섭	-14175
▁출시된	-14176
▁창을	-14177
▁같은데요	-14178
▁편입니다	-14179
▁체감	-14180
▁depend	-14181
▁무서운	-14182
▁differences	-14183
▁봤는데	-14184
▁뜨겁	-14185
가면서	-14186
▁얹	-14187
▁이번엔	-14188
IL	-14189
▁children	-14190
▁피드백	-14191
▁진상	-14192
▁우승을	-14193
개는	-14194
▁않음	-14195
블랙	-14196
▁야채	-14197
▁사이클	-14198
droid	-14199
▁이야기하는	-14200
▁찾아야	-14201
▁strong	-14202
▁방위	-14203
▁미만의	-14204
▁했기	-14205
▁빛나는	-14206
▁개월	-14207
▁사진과	-14208
▁마련했다	-14209
▁오피스텔	-14210
주의적	-14211
▁하천	-14212
▁말레이	-14213
▁타이밍	-14214
▁properties	-14215
▁볼게요	-14216
▁씻어	-14217
ustom	-14218
언이	-14219
▁조화를	-14220
▁특이	-14221
ction	-14222
▁계획에	-14223
▁다하겠다	-14224
▁ㅎ	-14225
티즌	-14226
▁생각으로	-14227
▁얼마든지	-14228
▁리듬	-14229
▁생략	-14230
여명의	-14231
▁가정을	-14232
▁정갈한	-14233
.27	-14234
▁동화	-14235
공이	-14236
끈한	-14237
▁최다	-14238
▁1995	-14239
▁유독	-14240
▁장벽	-14241
▁평가했다	-14242
▁검찰이	-14243
▁drug	-14244
▁여가	-14245
▁높을	-14246
어어	-14247
▁살이	-14248
sk	-14249
▁염려	-14250
▁변수	-14251
법원	-14252
▁제시하고	-14253
출장서비스	-14254
news	-14255
▁아니며	-14256
▁앞세	-14257
▁모릅니다	-14258
▁아이템을	-14259
▁컴퓨	-14260
▁럭셔	-14261
================	-14262
▁생기면	-14263
▁뚜껑	-14264
있던	-14265
▁전동	-14266
▁듯이	-14267
▁이어폰	-14268
▁제시했다	-14269
▁remain	-14270
wh	-14271
▁협회	-14272
▁소아	-14273
▁품고	-14274
업의	-14275
▁세이	-14276
▁생기고	-14277
▁건가요	-14278
슨은	-14279
▁취약계층	-14280
▁힘입어	-14281
▁추천하는	-14282
▁두루	-14283
▁단계에	-14284
융합	-14285
▁티셔츠	-14286
▁기구	-14287
▁간격	-14288
▁이송	-14289
▁방법이다	-14290
서에서	-14291
▁일으킨	-14292
농협	-14293
▁아이는	-14294
▁best	-14295
igital	-14296
▁백악	-14297
▁지나지	-14298
판의	-14299
▁널	-14300
던가	-14301
▁키보드	-14302
▁파악할	-14303
▁described	-14304
.^^	-14305
▁대안을	-14306
▁개최했다	-14307
▁예수님은	-14308
58	-14309
커뮤니	-14310
▁국비	-14311
▁반려동물	-14312
절로	-14313
▁직원들의	-14314
▁FTA	-14315
▁엑스	-14316
▁비전을	-14317
▁구직	-14318
▁서비스와	-14319
▁값이	-14320
▁서해	-14321
▁일단은	-14322
▁수치를	-14323
▁고교	-14324
An	-14325
해주신	-14326
▁기억에	-14327
▁질을	-14328
모델링	-14329
억원이	-14330
▁계획은	-14331
▁하나요	-14332
▁제보	-14333
변을	-14334
서리	-14335
키스탄	-14336
▁내리고	-14337
▁해주세요	-14338
▁06	-14339
▁동행	-14340
▁용도	-14341
ring	-14342
▁피로를	-14343
.28	-14344
▁없이는	-14345
리안	-14346
▁혐오	-14347
▁감염병	-14348
▁운영할	-14349
▁촉구했다	-14350
▁손해배상	-14351
▁선보인다	-14352
▁위원장님	-14353
▁ap	-14354
요양	-14355
▁검토할	-14356
▁한하여	-14357
▁SW	-14358
더스	-14359
영이	-14360
▁몰래	-14361
▁버티	-14362
▁조사한	-14363
▁key	-14364
표가	-14365
▁돼야	-14366
▁지워	-14367
▁성폭력	-14368
▁스마트폰을	-14369
▁패러다	-14370
▁분들의	-14371
▁reve	-14372
▁요건	-14373
▁영상은	-14374
▁해결책	-14375
신저	-14376
▁대응을	-14377
▁신의	-14378
▁연기를	-14379
유로	-14380
여개	-14381
▁모두의	-14382
▁무더	-14383
▁Anal	-14384
크의	-14385
EV	-14386
▁주한	-14387
▁온전히	-14388
▁농림	-14389
들보다	-14390
▁추진해	-14391
▁소홀	-14392
▁어마	-14393
▁world	-14394
카드를	-14395
▁아시안	-14396
ird	-14397
▁오산	-14398
▁몰라도	-14399
▁언덕	-14400
▁돌아다니	-14401
angu	-14402
▁시간도	-14403
뒀다	-14404
atal	-14405
령이	-14406
수리	-14407
▁미성년	-14408
▁입지	-14409
▁락	-14410
▁숨겨진	-14411
▁스토어	-14412
▁나머지는	-14413
▁month	-14414
부장관	-14415
수당	-14416
수정	-14417
▁조사에	-14418
no	-14419
▁acc	-14420
▁사유가	-14421
.0%	-14422
▁기대가	-14423
▁사용해서	-14424
▁알루미늄	-14425
진료	-14426
사무소	-14427
▁가져야	-14428
안타	-14429
▁라면	-14430
▁이끌고	-14431
▁이상인	-14432
bers	-14433
▁교육이	-14434
▁안다	-14435
▁하는가	-14436
▁self	-14437
▁코디	-14438
▁추경	-14439
▁fib	-14440
▁매출을	-14441
▁영화가	-14442
▁디즈니	-14443
▁분석해	-14444
▁77	-14445
▁드린	-14446
▁일으키는	-14447
▁꽃을	-14448
▁1500	-14449
▁Cloud	-14450
▁변경할	-14451
▁웨딩	-14452
▁살아야	-14453
iciency	-14454
▁사고로	-14455
▁제네	-14456
▁무죄	-14457
▁방법도	-14458
▁있겠습니다	-14459
▁활력을	-14460
▁다각	-14461
▁힘으로	-14462
쟁이	-14463
▁실적이	-14464
▁수행하고	-14465
▁아니냐는	-14466
▁가능해	-14467
었는데요	-14468
▁correspond	-14469
▁토양	-14470
▁행태	-14471
▁시작하고	-14472
▁measured	-14473
▁것인	-14474
▁직접적으로	-14475
▁풍요	-14476
▁conn	-14477
▁주무	-14478
▁연구소	-14479
하기에는	-14480
▁자유한국당	-14481
▁호수	-14482
시에는	-14483
▁배열	-14484
▁권력을	-14485
atter	-14486
▁누르	-14487
▁일러스트	-14488
블리	-14489
▁제거하는	-14490
▁먹지	-14491
▁관계는	-14492
▁필수적인	-14493
▁좌절	-14494
루살	-14495
문화재	-14496
▁By	-14497
▁쌓인	-14498
▁소감을	-14499
▁때면	-14500
▁끝나는	-14501
▁셔츠	-14502
▁상반	-14503
▁원정	-14504
▁무효	-14505
▁dynam	-14506
미디	-14507
~~~	-14508
라이프	-14509
▁어디에서	-14510
▁전문가의	-14511
나도	-14512
ication	-14513
▁까닭	-14514
~30	-14515
▁impact	-14516
▁불만을	-14517
▁금고	-14518
▁혈관	-14519
bc	-14520
▁신화	-14521
▁마다	-14522
으세요	-14523
▁해마다	-14524
▁계층	-14525
▁기가	-14526
▁댓글을	-14527
▁북한에	-14528
▁body	-14529
▁점령	-14530
▁토너	-14531
캠퍼스는	-14532
후에	-14533
▁집회	-14534
버튼	-14535
▁주재	-14536
▁함수	-14537
▁청취	-14538
▁지방의	-14539
걸이	-14540
▁다하고	-14541
GA	-14542
▁한동안	-14543
▁light	-14544
▁바라며	-14545
▁일부러	-14546
▁한마디로	-14547
▁molec	-14548
▁CH	-14549
▁진도	-14550
▁차로	-14551
▁Sim	-14552
인구	-14553
비디오	-14554
▁되돌아	-14555
▁될까요	-14556
▁단호	-14557
▁세제	-14558
▁가지로	-14559
우면	-14560
트립	-14561
▁삶과	-14562
▁부분들이	-14563
▁상하	-14564
▁Ind	-14565
▁매출액	-14566
말이	-14567
▁직관	-14568
▁기둥	-14569
▁숨은	-14570
▁집중적으로	-14571
▁바울	-14572
▁말하며	-14573
▁여유를	-14574
▁신형	-14575
▁이사장	-14576
루살렘	-14577
▁히트	-14578
▁것이지	-14579
▁SP	-14580
pre	-14581
▁목사는	-14582
르타	-14583
달아	-14584
▁내놓은	-14585
ibility	-14586
▁평가가	-14587
▁IC	-14588
▁형평	-14589
진흥원	-14590
▁호텔의	-14591
▁61	-14592
▁세팅	-14593
▁전문가가	-14594
▁제공하여	-14595
▁남쪽	-14596
▁신인	-14597
▁이외에	-14598
▁included	-14599
▁목표가	-14600
▁fail	-14601
▁줌	-14602
▁according	-14603
▁꽃이	-14604
▁건축물	-14605
▁검토하고	-14606
▁진학	-14607
▁사용된	-14608
▁여행객	-14609
▁즐기실	-14610
▁phot	-14611
▁귀엽	-14612
▁커넥	-14613
▁예수님	-14614
▁fram	-14615
부채	-14616
▁사업장	-14617
)”	-14618
Island	-14619
▁공식적으로	-14620
▁육체	-14621
라를	-14622
▁CF	-14623
▁일본이	-14624
▁급등	-14625
▁시뮬레이션	-14626
▁iss	-14627
▁서울중앙	-14628
.14	-14629
▁살펴보고	-14630
▁자신감을	-14631
▁데일리	-14632
▁캠페인을	-14633
-15	-14634
▁고스란히	-14635
▁내구	-14636
▁해줄	-14637
▁구성을	-14638
-22	-14639
▁\	-14640
▁물어보	-14641
▁체납	-14642
▁사립	-14643
▁enh	-14644
▁대조	-14645
▁국민연금	-14646
▁체류	-14647
▁크로스	-14648
놓을	-14649
▁꿰	-14650
▁Therefore	-14651
ription	-14652
진보	-14653
▁전산	-14654
쿠폰	-14655
(30	-14656
▁성숙	-14657
Th	-14658
▁감정이	-14659
▁Ste	-14660
▁day	-14661
곳에	-14662
버거	-14663
▁당분간	-14664
측에	-14665
▁지역경제	-14666
▁하여튼	-14667
▁서류를	-14668
▁밭	-14669
▁무언가를	-14670
▁들어올	-14671
▁숫자가	-14672
▁얇은	-14673
되지는	-14674
▁특징은	-14675
▁기능과	-14676
요구	-14677
▁circ	-14678
▁의지가	-14679
투자증권	-14680
▁기억을	-14681
▁채소	-14682
▁했죠	-14683
▁1996	-14684
▁것일	-14685
▁해주고	-14686
▁스타벅	-14687
▁짐작	-14688
▁이어져	-14689
▁발표를	-14690
▁인스턴	-14691
▁제철	-14692
ubl	-14693
환경을	-14694
ape	-14695
▁농산물	-14696
▁아파트를	-14697
▁카테고리의	-14698
다보니	-14699
▁아버지는	-14700
크가	-14701
▁후보자	-14702
인원	-14703
▁genes	-14704
그룹은	-14705
▁각기	-14706
▁파고	-14707
▁하겠다는	-14708
▁가급	-14709
해보면	-14710
▁multiple	-14711
▁림	-14712
▁소통을	-14713
초등학교	-14714
▁스위스	-14715
▁프로토콜	-14716
▁소망	-14717
▁타격	-14718
.]	-14719
▁누군가가	-14720
국회	-14721
▁변화와	-14722
리브	-14723
▁업데이트를	-14724
규정	-14725
제일	-14726
하고는	-14727
▁연습을	-14728
둘러	-14729
▁자리매	-14730
설치	-14731
fact	-14732
▁econ	-14733
▁코딩	-14734
▁국방부	-14735
해보자	-14736
렌트	-14737
▁하우	-14738
입을	-14739
▁미네	-14740
▁적용하는	-14741
가장	-14742
▁보전	-14743
▁UI	-14744
▁엑셀	-14745
▁존재를	-14746
▁지키기	-14747
▁뷔	-14748
▁캐시	-14749
▁기록하며	-14750
▁영어로	-14751
▁제공되며	-14752
▁기한	-14753
emap	-14754
itation	-14755
▁이룰	-14756
▁나눈	-14757
▁했으나	-14758
▁스카이	-14759
▁Trans	-14760
▁잡았다	-14761
창을	-14762
▁부의	-14763
▁중립	-14764
▁바람을	-14765
82	-14766
▁호출	-14767
▁제공을	-14768
▁김상	-14769
▁아스	-14770
▁전적으로	-14771
▁디자인으로	-14772
▁현황을	-14773
▁가슴이	-14774
▁Par	-14775
▁언젠가	-14776
▁결정이	-14777
▁되었다고	-14778
▁유치원	-14779
▁exist	-14780
▁극장	-14781
▁대가	-14782
▁소련	-14783
▁시에는	-14784
▁눈빛	-14785
▁이뤄진	-14786
▁고문	-14787
하는데요	-14788
우를	-14789
▁신흥	-14790
▁25%	-14791
▁데다	-14792
▁메디	-14793
버트	-14794
취소	-14795
▁시세	-14796
우의	-14797
이닝	-14798
▁만기	-14799
▁걸리	-14800
▁조성을	-14801
다양	-14802
▁수질	-14803
아도	-14804
요일에	-14805
이라든가	-14806
▁평화를	-14807
강화	-14808
▁세계적	-14809
GF	-14810
▁반성	-14811
년간의	-14812
▁example	-14813
초를	-14814
▁sym	-14815
의견	-14816
▁15%	-14817
▁그런데도	-14818
▁아이스크	-14819
▁불과하다	-14820
▁현안	-14821
데스	-14822
사기	-14823
rix	-14824
포스트	-14825
장소	-14826
▁밸브	-14827
▁요구했다	-14828
▁조직이	-14829
▁용기	-14830
그린	-14831
▁감동을	-14832
▁결정에	-14833
▁일일이	-14834
▁나란히	-14835
▁제시하는	-14836
▁나타난다	-14837
▁모음	-14838
창조	-14839
▁남원	-14840
▁선착	-14841
비율	-14842
▁적을	-14843
▁달린	-14844
▁Gen	-14845
▁딱히	-14846
▁3.5	-14847
으러	-14848
▁쉽다	-14849
▁공급하는	-14850
▁날은	-14851
▁맞다	-14852
▁촬영을	-14853
play	-14854
산지	-14855
▁초음	-14856
▁마쳤다	-14857
▁앞으로의	-14858
▁데서	-14859
cell	-14860
▁이내의	-14861
▁송파	-14862
()	-14863
품으로	-14864
▁전문성을	-14865
▁대상은	-14866
▁지목	-14867
▁역동	-14868
▁네티즌	-14869
그네	-14870
▁종일	-14871
▁재판부는	-14872
저작	-14873
ify	-14874
▁설치할	-14875
▁성공했다	-14876
▁above	-14877
됐지만	-14878
▁does	-14879
▁effective	-14880
▁네덜란드	-14881
▁추운	-14882
설비	-14883
효과를	-14884
SK	-14885
명하게	-14886
▁남기	-14887
rag	-14888
▁불가능합니다	-14889
▁좋지만	-14890
빌딩	-14891
▁사라진	-14892
▁접근할	-14893
▁일체	-14894
혜택	-14895
▁많았	-14896
희망	-14897
▁가사	-14898
▁쌓여	-14899
▁하고자	-14900
▁올라가는	-14901
▁정돈	-14902
셨으면	-14903
▁조속	-14904
uration	-14905
▁연결이	-14906
▁문장	-14907
▁익스	-14908
▁있듯이	-14909
▁법제	-14910
▁주실	-14911
▁달콤한	-14912
투를	-14913
▁SUV	-14914
▁소개했다	-14915
▁내역	-14916
▁원장은	-14917
▁수송	-14918
▁믿음을	-14919
▁품질을	-14920
▁CCTV	-14921
▁레지	-14922
▁찜	-14923
행의	-14924
맞은	-14925
▁내년에	-14926
▁동작을	-14927
▁라인을	-14928
▁활동하고	-14929
▁안성	-14930
▁새정치	-14931
때로	-14932
▁이루어질	-14933
▁인내	-14934
▁죄송합니다	-14935
상선	-14936
▁전인	-14937
▁(19	-14938
▁하남	-14939
하나요	-14940
▁확보할	-14941
▁보호하는	-14942
챌린	-14943
▁성장하는	-14944
되던	-14945
▁것의	-14946
▁짓고	-14947
의약품	-14948
▁시리아	-14949
▁찾았다	-14950
▁핵심은	-14951
ervices	-14952
94	-14953
mg	-14954
하곤	-14955
▁운전자	-14956
학은	-14957
▁정도면	-14958
▁조만간	-14959
▁열쇠	-14960
수출	-14961
▁쓰이는	-14962
▁몸과	-14963
▁물려	-14964
▁ste	-14965
▁제공한	-14966
▁되어있	-14967
▁통영	-14968
▁덜어	-14969
▁종류가	-14970
▁부진	-14971
▁identified	-14972
시간은	-14973
▁진행이	-14974
▁현금으로	-14975
▁친화	-14976
▁내년도	-14977
▁알레르기	-14978
▁Ins	-14979
▁발표된	-14980
▁characteristics	-14981
▁이용에	-14982
CH	-14983
월호	-14984
ores	-14985
▁이집트	-14986
어리	-14987
▁제작된	-14988
▁다르지	-14989
지원금	-14990
▁그룹의	-14991
▁대응하는	-14992
Cl	-14993
▁average	-14994
box	-14995
▁나이에	-14996
▁특성에	-14997
▁준비되어	-14998
▁사회공헌	-14999
▁knowledge	-15000
▁예정인	-15001
▁금메달	-15002
러시아	-15003
▁lg	-15004
▁중증	-15005
▁권한이	-15006
과제	-15007
천지	-15008
▁사막	-15009
백만	-15010
▁이해관계	-15011
▁건강과	-15012
겠어	-15013
▁자리매김	-15014
▁불편을	-15015
화될	-15016
actions	-15017
항은	-15018
▁어떻습니까	-15019
▁hyp	-15020
▁뉴스를	-15021
▁적용한	-15022
▁많지만	-15023
▁만만	-15024
▁영적	-15025
3000	-15026
heck	-15027
▁진단을	-15028
▁지원하기	-15029
▁끔찍	-15030
▁지식과	-15031
atively	-15032
rome	-15033
▁부모가	-15034
후군	-15035
▁물가	-15036
▁망설	-15037
▁지났	-15038
▁혀	-15039
▁분석이	-15040
▁찾아가는	-15041
데믹	-15042
▁건전한	-15043
정보가	-15044
9,	-15045
분과	-15046
▁체력	-15047
▁판타	-15048
▁대해선	-15049
군사	-15050
▁어지	-15051
▁Med	-15052
내어	-15053
▁88	-15054
▁Am	-15055
▁진실을	-15056
옵션	-15057
이노	-15058
플랫폼	-15059
▁변화의	-15060
▁(5	-15061
▁딱딱	-15062
▁워크숍	-15063
▁Server	-15064
▁algorithm	-15065
▁상대방의	-15066
▁sum	-15067
▁국한	-15068
▁무대를	-15069
리나	-15070
▁중심에	-15071
▁친구들	-15072
시키지	-15073
▁Off	-15074
oms	-15075
적은	-15076
▁이마트	-15077
▁영역에서	-15078
니를	-15079
▁질병의	-15080
▁확보하고	-15081
▁홈페이지에서	-15082
▁바꾸고	-15083
▁연구원	-15084
▁엮	-15085
성공	-15086
▁치는	-15087
▁밝히고	-15088
▁하셨습니다	-15089
▁당기	-15090
▁자매	-15091
▁감각을	-15092
96	-15093
인민	-15094
▁합리적	-15095
국수	-15096
분으로	-15097
eb	-15098
▁왔는데	-15099
▁log	-15100
니의	-15101
▁것임을	-15102
▁mus	-15103
▁단계는	-15104
▁면이	-15105
▁Book	-15106
▁intro	-15107
▁서론	-15108
▁러브	-15109
▁번거	-15110
기간은	-15111
▁음식은	-15112
▁실버	-15113
▁어우러	-15114
oints	-15115
.20	-15116
▁농가	-15117
▁씹	-15118
▁위장	-15119
▁더욱이	-15120
기간에	-15121
▁상세한	-15122
▁하늘을	-15123
인식	-15124
▁프로세스를	-15125
데일리	-15126
▁판결을	-15127
▁CT	-15128
▁깨끗하게	-15129
▁계획입니다	-15130
▁솟	-15131
▁유포	-15132
▁his	-15133
▁알려주는	-15134
▁If	-15135
▁떡볶	-15136
▁나가야	-15137
주시기	-15138
▁몬스터	-15139
obile	-15140
셨을	-15141
▁아르바이트	-15142
▁항만	-15143
comm	-15144
화재	-15145
▁넣어서	-15146
▁pressure	-15147
▁근본적으로	-15148
▁여성은	-15149
결혼	-15150
▁Qu	-15151
▁마음대로	-15152
▁바라보며	-15153
▁로켓	-15154
▁수월	-15155
▁장의	-15156
▁작성자	-15157
▁활동은	-15158
RT	-15159
▁정신이	-15160
▁Is	-15161
▁제국	-15162
▁입점	-15163
영향	-15164
▁과잉	-15165
▁전체에	-15166
돼서	-15167
비즈	-15168
▁비롯하여	-15169
▁반가	-15170
지난해	-15171
▁사이트가	-15172
ours	-15173
▁부정적	-15174
▁조건에	-15175
▁무겁	-15176
▁국가대표	-15177
▁엔터테인먼트	-15178
형과	-15179
오픈	-15180
▁취지로	-15181
▁나서는	-15182
▁스타일의	-15183
플라	-15184
플로	-15185
▁인접	-15186
ually	-15187
▁Further	-15188
▁장기적인	-15189
만으로는	-15190
▁대항	-15191
▁금년	-15192
월말	-15193
▁가치는	-15194
▁여론조사	-15195
▁최우수	-15196
▁최적화된	-15197
▁버리는	-15198
▁붐	-15199
배가	-15200
▁일원	-15201
부족	-15202
▁increasing	-15203
한지	-15204
▁겪은	-15205
사업이	-15206
▁그때는	-15207
▁디자인의	-15208
▁수수료를	-15209
▁초등학생	-15210
▁쾌적한	-15211
▁금감	-15212
▁했으면	-15213
▁questions	-15214
지식	-15215
참고	-15216
▁(4	-15217
▁바둑	-15218
▁전직	-15219
지니	-15220
▁유연한	-15221
콜걸후기	-15222
▁당근	-15223
▁Fin	-15224
▁구축을	-15225
▁프로그램으로	-15226
▁없죠	-15227
▁입문	-15228
▁장기적으로	-15229
▁의식을	-15230
다를	-15231
▁승용	-15232
지기도	-15233
▁달한다	-15234
중을	-15235
▁방출	-15236
ored	-15237
▁오류가	-15238
▁살림	-15239
▁보시고	-15240
▁김제	-15241
▁남해	-15242
▁당시에는	-15243
▁ang	-15244
▁같다는	-15245
▁플레이어가	-15246
정부는	-15247
▁바다를	-15248
▁간혹	-15249
▁유기농	-15250
▁창의적인	-15251
▁##	-15252
▁미스터	-15253
소시	-15254
▁상표	-15255
▁2%	-15256
▁되었는데	-15257
프로젝	-15258
▁해피캠퍼스는	-15259
▁메가	-15260
▁나라는	-15261
▁성공할	-15262
▁이익이	-15263
▁sitemap	-15264
▁권위	-15265
▁생각과	-15266
▁개인정보의	-15267
▁인력을	-15268
▁every	-15269
한편	-15270
활동에	-15271
능력을	-15272
▁나쁘지	-15273
▁Mark	-15274
▁rights	-15275
EB	-15276
▁묵묵	-15277
▁쓰여	-15278
▁표시됩니다	-15279
반의	-15280
▁반영한	-15281
히며	-15282
이론	-15283
전공	-15284
.19	-15285
▁random	-15286
ither	-15287
▁what	-15288
▁놨	-15289
ols	-15290
▁걸어서	-15291
▁보류	-15292
ones	-15293
▁119	-15294
▁Rep	-15295
▁듯하다	-15296
▁이상입니다	-15297
드민	-15298
축산	-15299
출산	-15300
해볼	-15301
커니즘	-15302
▁영역에	-15303
비서	-15304
▁무용	-15305
▁아래에서	-15306
타르	-15307
▁베네	-15308
▁정서적	-15309
off	-15310
▁의사소통	-15311
▁설치하는	-15312
▁자체적으로	-15313
▁불꽃	-15314
▁자신은	-15315
▁하에	-15316
▁항공기	-15317
결이	-15318
처는	-15319
협정	-15320
▁스윙	-15321
자리를	-15322
외교	-15323
ways	-15324
▁수산	-15325
▁미끄	-15326
▁자립	-15327
9%	-15328
▁포천	-15329
▁버전을	-15330
▁변화하는	-15331
▁무리가	-15332
▁교섭	-15333
들에서	-15334
▁순수한	-15335
들여	-15336
그룹의	-15337
억원에	-15338
▁중요하지만	-15339
조달	-15340
▁터미널	-15341
란을	-15342
황을	-15343
▁공개한	-15344
▁한번에	-15345
절이	-15346
▁계승	-15347
▁도매	-15348
.24	-15349
▁가능하다는	-15350
찰을	-15351
▁등록을	-15352
▁제한이	-15353
▁급성	-15354
▁담당자	-15355
▁Gu	-15356
▁박사는	-15357
▁믿지	-15358
▁상무	-15359
▁않았다고	-15360
▁소집	-15361
▁×	-15362
▁DS	-15363
▁오리지널	-15364
▁아랍	-15365
▁부분입니다	-15366
▁국경	-15367
으로의	-15368
군수	-15369
▁심하게	-15370
▁전망했다	-15371
▁행동이	-15372
▁장수	-15373
▁평점	-15374
▁발견한	-15375
▁헌법재판	-15376
▁판매가	-15377
▁어느새	-15378
▁풀고	-15379
▁특검	-15380
ixed	-15381
inary	-15382
▁살아있는	-15383
금속	-15384
량과	-15385
▁기차	-15386
▁맞춰서	-15387
화해	-15388
주주	-15389
▁ratio	-15390
▁달고	-15391
▁요건을	-15392
▁벚꽃	-15393
소유	-15394
▁가이	-15395
드림	-15396
내역	-15397
▁고용노동	-15398
▁뿌려	-15399
강원	-15400
▁하단	-15401
▁360	-15402
▁tumor	-15403
▁이색	-15404
▁독일의	-15405
▁설치하고	-15406
▁application	-15407
▁EUR	-15408
▁예매	-15409
▁라이선	-15410
▁확대하고	-15411
터로	-15412
▁기술에	-15413
▁오스트	-15414
▁04	-15415
▁줄기	-15416
들인	-15417
▁처한	-15418
▁nuc	-15419
▁자녀를	-15420
▁적용을	-15421
여부	-15422
▁소문	-15423
여기	-15424
윤리	-15425
▁양질의	-15426
곡을	-15427
▁기준은	-15428
▁전망이	-15429
▁방문하여	-15430
▁위촉	-15431
81	-15432
▁감옥	-15433
▁적고	-15434
▁3%	-15435
결과를	-15436
▁생겼다	-15437
▁운항	-15438
체육관광	-15439
lease	-15440
▁space	-15441
▁눈썹	-15442
struction	-15443
해줄	-15444
▁단행	-15445
▁보조금	-15446
식물	-15447
-30	-15448
검사를	-15449
emic	-15450
▁applied	-15451
▁결산	-15452
▁시인	-15453
▁키를	-15454
▁수익이	-15455
▁여드름	-15456
더욱	-15457
▁친구와	-15458
▁검색하여	-15459
러의	-15460
▁상을	-15461
▁아니요	-15462
▁species	-15463
▁세분	-15464
▁구하는	-15465
해당	-15466
▁브랜	-15467
▁말미	-15468
▁같지만	-15469
동강	-15470
▁교육부	-15471
▁방송된	-15472
▁access	-15473
version	-15474
별한	-15475
▁평가하는	-15476
▁최저가	-15477
▁orig	-15478
▁선생님이	-15479
소리를	-15480
칭을	-15481
제도의	-15482
화되어	-15483
▁마련된	-15484
▁말씀드리겠습니다	-15485
(24	-15486
▁HTML	-15487
▁96	-15488
▁정도다	-15489
▁도민	-15490
봐도	-15491
카를	-15492
▁생각됩니다	-15493
▁검토가	-15494
▁좋았다	-15495
MO	-15496
▁댓글목록	-15497
TX	-15498
▁◈	-15499
▁떠오르는	-15500
▁With	-15501
▁선보이는	-15502
▁움직임이	-15503
LO	-15504
풍을	-15505
잡이	-15506
▁실린	-15507
sw	-15508
▁바뀌는	-15509
▁국가를	-15510
명에게	-15511
▁강경	-15512
▁생활에	-15513
▁안철수	-15514
국적	-15515
▁짐을	-15516
사에게	-15517
▁진한	-15518
▁화를	-15519
▁파생	-15520
▁der	-15521
드에서	-15522
▁징후	-15523
▁길로	-15524
▁블루투스	-15525
셨던	-15526
테랑	-15527
▁정품	-15528
▁해당되는	-15529
▁시작하면	-15530
▁국회에	-15531
▁감소했다	-15532
가서	-15533
▁주택을	-15534
▁측이	-15535
▁다큐멘	-15536
▁비판을	-15537
▁Te	-15538
ris	-15539
대교	-15540
이후	-15541
▁기관이	-15542
▁지위를	-15543
▁온다	-15544
▁국민을	-15545
뱅킹	-15546
사항에	-15547
▁관련해서는	-15548
▁증가할	-15549
▁양극	-15550
▁제천	-15551
▁강렬한	-15552
▁스케줄	-15553
▁안전성	-15554
▁의외로	-15555
▁메시지가	-15556
수업	-15557
▁리뷰를	-15558
▁비영리	-15559
▁aim	-15560
▁도와주는	-15561
▁청산	-15562
▁Sm	-15563
적이라고	-15564
LC	-15565
지거나	-15566
▁죽는	-15567
▁골든	-15568
▁가지게	-15569
라든가	-15570
oney	-15571
▁작가가	-15572
▁고성능	-15573
▁의무가	-15574
HT	-15575
▁있긴	-15576
▁줄었다	-15577
▁concentration	-15578
▁오렌지	-15579
▁병원에서	-15580
▁마음껏	-15581
▁정읍	-15582
▁만나서	-15583
▁부른다	-15584
▁비주얼	-15585
보고서	-15586
▁접착	-15587
agne	-15588
▁디자인과	-15589
▁뽀	-15590
▁예루살렘	-15591
▁호텔에는	-15592
수증	-15593
화성	-15594
▁선전	-15595
▁무덤	-15596
▁습관이	-15597
▁findings	-15598
▁주목할	-15599
▁급격한	-15600
▁그런가	-15601
▁행동에	-15602
▁교육은	-15603
▁인물이	-15604
영을	-15605
진행	-15606
▁주의해야	-15607
▁frequency	-15608
▁가톨릭	-15609
▁생선	-15610
▁편안하고	-15611
▁오사카	-15612
▁terms	-15613
count	-15614
▁운반	-15615
▁경우에만	-15616
▁training	-15617
▁스틸	-15618
권자	-15619
▁추진을	-15620
▁아이들과	-15621
운임	-15622
▁뽐	-15623
▁침체	-15624
렸다고	-15625
▁장점은	-15626
▁상당의	-15627
▁아닌지	-15628
▁출시한	-15629
▁9,	-15630
▁시에서	-15631
▁위법	-15632
akes	-15633
▁위키	-15634
▁입는	-15635
▁긍정적으로	-15636
비드	-15637
▁곳도	-15638
▁혜택이	-15639
주며	-15640
▁전문가들이	-15641
▁reduced	-15642
▁사천	-15643
▁더보기	-15644
▁데이터의	-15645
▁있겠다	-15646
▁절차에	-15647
맞춤	-15648
▁인간을	-15649
지는데	-15650
▁ICT	-15651
시절	-15652
▁만났다	-15653
하네	-15654
▁무대에	-15655
paration	-15656
▁외에는	-15657
▁펠	-15658
▁빠져나	-15659
▁지역별	-15660
DR	-15661
odes	-15662
▁비교할	-15663
그럼	-15664
▁타격을	-15665
▁마산	-15666
▁정복	-15667
계에서	-15668
지법	-15669
▁모양이	-15670
이라면서	-15671
내에서	-15672
▁업계의	-15673
▁콧	-15674
료와	-15675
받기	-15676
상도	-15677
터에	-15678
72	-15679
▁중부	-15680
▁후지	-15681
▁부위	-15682
▁하향	-15683
▁매출은	-15684
▁재미있	-15685
▁달라진	-15686
▁거래소	-15687
2011	-15688
▁MP	-15689
전부터	-15690
▁스승	-15691
▁요구하고	-15692
▁절실	-15693
▁삼고	-15694
▁제법	-15695
▁전방	-15696
▁이슈가	-15697
-23	-15698
▁규칙을	-15699
▁자격이	-15700
▁견디	-15701
▁Per	-15702
▁교수의	-15703
▁노력할	-15704
▁같다고	-15705
pm	-15706
▁푸드	-15707
.26	-15708
ury	-15709
였을	-15710
렸어요	-15711
투데이	-15712
사회복지	-15713
▁가산	-15714
▁안녕하십니까	-15715
측의	-15716
▁HP	-15717
▁외의	-15718
▁달걀	-15719
▁SAP	-15720
▁완공	-15721
베스트	-15722
▁입시	-15723
▁태평양	-15724
▁발생한다	-15725
▁들어보	-15726
하였으나	-15727
』,	-15728
▁없어도	-15729
▁아이스	-15730
▁판단이	-15731
▁아니라면	-15732
▁관통	-15733
▁미팅	-15734
▁여권	-15735
드민턴	-15736
▁고객들이	-15737
콜걸샵	-15738
▁위해선	-15739
▁hyper	-15740
▁아파트에서	-15741
▁시카	-15742
리케이션을	-15743
.23	-15744
▁가격대	-15745
▁여름철	-15746
▁much	-15747
수행	-15748
반품	-15749
▁추억을	-15750
▁전사	-15751
▁주위	-15752
▁index	-15753
▁제외하고는	-15754
년만에	-15755
DC	-15756
▁버리	-15757
▁먹거리	-15758
▁인가	-15759
▁부드럽고	-15760
▁확인하실	-15761
▁갯	-15762
총회	-15763
▁통증을	-15764
▁고민하고	-15765
▁건가	-15766
페이지에	-15767
▁클러스터	-15768
처가	-15769
▁이가	-15770
▁Car	-15771
▁여자친구	-15772
▁말레이시아	-15773
테스트	-15774
▁THE	-15775
▁치료에	-15776
(15	-15777
▁편지	-15778
튜버	-15779
▁비만	-15780
▁머무	-15781
▁후손	-15782
▁장사	-15783
▁찾아보	-15784
▁느낌으로	-15785
▁Americ	-15786
▁부모의	-15787
▁interest	-15788
▁features	-15789
~20	-15790
▁신부	-15791
▁버는	-15792
▁작업은	-15793
▁구축하고	-15794
▁모습이다	-15795
▁예정이며	-15796
인재	-15797
▁주머니	-15798
▁않더라도	-15799
raw	-15800
ground	-15801
▁대신에	-15802
▁순식	-15803
▁고기를	-15804
중독	-15805
▁나빠	-15806
▁lik	-15807
▁미얀	-15808
▁알아볼	-15809
▁심도	-15810
오스	-15811
eu	-15812
||0	-15813
▁녀석	-15814
라이브	-15815
▁연결을	-15816
▁환자를	-15817
▁성장하고	-15818
▁여건	-15819
신청을	-15820
▁early	-15821
▁겸손	-15822
atural	-15823
▁민생	-15824
▁용기를	-15825
▁기사가	-15826
▁아내가	-15827
Ex	-15828
▁known	-15829
▁Design	-15830
▁정적인	-15831
▁right	-15832
▁시기가	-15833
▁의원님	-15834
▁presence	-15835
▁거고요	-15836
▁마시기	-15837
not	-15838
▁개헌	-15839
▁휴양	-15840
▁본다면	-15841
EP	-15842
▁여는	-15843
▁몽골	-15844
▁지켜야	-15845
-00	-15846
▁err	-15847
수단	-15848
곳을	-15849
-25	-15850
시작	-15851
클릭	-15852
▁박물	-15853
▁지급하는	-15854
▁대학에	-15855
▁필요에	-15856
▁추천을	-15857
clusion	-15858
▁위주의	-15859
▁달래	-15860
▁900	-15861
▁필요성	-15862
유공	-15863
업자	-15864
▁larg	-15865
ogni	-15866
▁화제가	-15867
▁때만	-15868
▁실전	-15869
▁컴퓨팅	-15870
먹을	-15871
▁했으며	-15872
▁사용에	-15873
▁청문	-15874
▁조회수	-15875
▁생긴다	-15876
▁맞을	-15877
▁식탁	-15878
▁공영	-15879
▁특히나	-15880
▁block	-15881
혈관	-15882
▁강진	-15883
▁콘솔	-15884
▁세계가	-15885
포항	-15886
HA	-15887
ta	-15888
작품	-15889
▁제한을	-15890
▁외로	-15891
▁question	-15892
연합뉴스	-15893
투쟁	-15894
▁자체의	-15895
izing	-15896
쳐서	-15897
▁reveal	-15898
캐피탈	-15899
▁옆에서	-15900
▁빈번	-15901
▁서술	-15902
oper	-15903
▁내수	-15904
▁강행	-15905
▁디테	-15906
▁걸까	-15907
▁IoT	-15908
▁하려	-15909
▁365	-15910
▁왔어요	-15911
oor	-15912
▁더욱더	-15913
▁되겠죠	-15914
적의	-15915
▁AT	-15916
동안마	-15917
▁매운	-15918
▁무엇인가요	-15919
▁예방을	-15920
래요	-15921
▁받았고	-15922
▁엇	-15923
10)	-15924
▁걷기	-15925
▁클렌	-15926
촉진	-15927
▁징수	-15928
▁향이	-15929
ework	-15930
▁다듬	-15931
▁의사결	-15932
▁의료기관	-15933
▁열정을	-15934
▁product	-15935
▁유관	-15936
▁전제로	-15937
▁강조하는	-15938
▁발견된	-15939
▁브레이크	-15940
▁호스트	-15941
▁사람이다	-15942
모의	-15943
▁she	-15944
▁협약을	-15945
▁시키는	-15946
▁진행됩니다	-15947
▁PM	-15948
▁감추	-15949
▁넌	-15950
▁약관	-15951
▁채로	-15952
▁색다른	-15953
▁소주	-15954
비보험	-15955
버드	-15956
르며	-15957
▁안겨	-15958
▁코코	-15959
▁양심	-15960
▁치러	-15961
크리에	-15962
▁직원을	-15963
▁2024	-15964
▁대표이	-15965
▁특이한	-15966
▁한잔	-15967
▁지난번	-15968
▁룰렛	-15969
▁임직	-15970
자로부터	-15971
케이스	-15972
처음	-15973
▁일들을	-15974
▁존재가	-15975
▁좋겠어요	-15976
▁호의	-15977
약한	-15978
▁입에	-15979
▁저한테	-15980
▁음식이	-15981
DB	-15982
▁홍보를	-15983
▁수익률	-15984
▁진출을	-15985
▁실시하는	-15986
▁장단	-15987
▁맞추는	-15988
▁협상을	-15989
▁주변을	-15990
▁공유할	-15991
Com	-15992
▁오키	-15993
▁평등	-15994
▁친구를	-15995
슬러	-15996
정기	-15997
▁전지	-15998
▁시작되는	-15999
▁아니한	-16000
▁영등포	-16001
▁애드	-16002
▁판촉	-16003
네가	-16004
리에서	-16005
▁바이든	-16006
▁동계	-16007
++	-16008
▁초기에	-16009
▁바람직한	-16010
▁띄는	-16011
▁청원	-16012
했듯이	-16013
시의회	-16014
▁장시간	-16015
▁파트너십	-16016
▁전의	-16017
▁돌아와	-16018
▁차려	-16019
▁link	-16020
▁observ	-16021
▁육군	-16022
▁부추	-16023
▁0.1	-16024
▁똥	-16025
▁마련하고	-16026
▁아일랜드	-16027
)"	-16028
ried	-16029
▁말하지	-16030
▁시작하여	-16031
▁미국을	-16032
▁원칙적으로	-16033
르다	-16034
▁1:	-16035
식당	-16036
▁욕조	-16037
more	-16038
▁이라고	-16039
▁벌어지는	-16040
▁소개하고	-16041
▁기분을	-16042
▁전술	-16043
▁Inc	-16044
▁단계로	-16045
▁리버	-16046
▁conducted	-16047
▁establ	-16048
▁속성	-16049
▁고조	-16050
▁이쁘	-16051
▁count	-16052
블루	-16053
▁GDP	-16054
▁얻습니다	-16055
하를	-16056
78	-16057
▁아들을	-16058
hesis	-16059
▁속초	-16060
▁처리가	-16061
▁운영되고	-16062
▁드리도록	-16063
▁섞어	-16064
▁기본으로	-16065
분쟁	-16066
▁됐고	-16067
▁주름	-16068
▁eas	-16069
▁주변에서	-16070
바구니	-16071
▁광화문	-16072
소속	-16073
▁연중	-16074
ining	-16075
▁Android	-16076
슈퍼	-16077
▁gre	-16078
▁막는	-16079
▁이동통신	-16080
▁회원에게	-16081
▁클로	-16082
프란	-16083
▁드러냈다	-16084
▁암호화	-16085
구속	-16086
보유	-16087
▁취하고	-16088
▁week	-16089
▁아담	-16090
▁조건으로	-16091
▁신라	-16092
~8	-16093
ospital	-16094
▁evidence	-16095
쪽에서	-16096
이라고도	-16097
▁검색을	-16098
▁기지	-16099
▁이상적인	-16100
bon	-16101
▁surg	-16102
조차도	-16103
▁women	-16104
▁condition	-16105
▁사운	-16106
▁그러다가	-16107
▁베타	-16108
▁말해서	-16109
▁일회	-16110
였다는	-16111
리뷰	-16112
▁목적에	-16113
▁비교하면	-16114
▁삼겹	-16115
set	-16116
▁가축	-16117
통장	-16118
▁선진국	-16119
직자	-16120
▁커리	-16121
수석	-16122
▁메리	-16123
▁검찰에	-16124
▁After	-16125
▁주셨습니다	-16126
평등	-16127
레는	-16128
▁기쁨을	-16129
▁설정할	-16130
▁화면이	-16131
디에	-16132
cep	-16133
▁1994	-16134
▁신상	-16135
▁철강	-16136
시설의	-16137
▁않으면서	-16138
lation	-16139
▁너의	-16140
▁primary	-16141
▁clear	-16142
디스크	-16143
▁인재를	-16144
출장업소	-16145
▁러닝	-16146
EW	-16147
▁DC	-16148
킬로미터	-16149
▁언제든	-16150
들에게도	-16151
▁저해	-16152
▁강남구	-16153
▁통행	-16154
▁말씀은	-16155
ove	-16156
▁출자	-16157
▁겨울철	-16158
▁산업혁명	-16159
▁움직일	-16160
▁저희들은	-16161
▁kt	-16162
▁복음을	-16163
▁발명	-16164
▁비즈니	-16165
▁남자는	-16166
시각	-16167
호흡	-16168
▁착공	-16169
▁전국적으로	-16170
▁불합	-16171
▁가맹점	-16172
cc	-16173
▁기획재	-16174
▁상대가	-16175
▁어마어	-16176
▁때를	-16177
oung	-16178
▁살면서	-16179
▁조사됐다	-16180
ECD	-16181
▁부분의	-16182
▁레몬	-16183
▁개그	-16184
▁독창	-16185
맛이	-16186
▁인건비	-16187
RC	-16188
▁허벅	-16189
▁투자에	-16190
▁든든한	-16191
▁생계	-16192
▁열매	-16193
▁측의	-16194
온은	-16195
▁수거	-16196
▁너무나도	-16197
타입	-16198
▁듣기	-16199
▁만끽	-16200
카메라	-16201
▁최근의	-16202
▁선보일	-16203
▁성능이	-16204
▁라벨	-16205
▁사정	-16206
▁커질	-16207
▁생각하며	-16208
▁피자	-16209
▁기법	-16210
▁연결되는	-16211
▁수단으로	-16212
▁충주	-16213
hone	-16214
▁behavior	-16215
휴일	-16216
▁형상	-16217
▁선택해	-16218
▁5)	-16219
자에게는	-16220
과를	-16221
▁NO	-16222
맛사지	-16223
▁때때로	-16224
▁이더	-16225
▁교육과정	-16226
▁수제	-16227
시다시피	-16228
대요	-16229
도어	-16230
iqu	-16231
▁다크	-16232
시경	-16233
▁잠수	-16234
었으면	-16235
▁나오는데	-16236
본부장	-16237
▁돌아갈	-16238
▁싶다고	-16239
▁중장기	-16240
▁☞	-16241
▁정보로	-16242
성형	-16243
▁95%	-16244
학년도	-16245
▁민주화	-16246
▁돕고	-16247
▁부당한	-16248
▁사원	-16249
▁산불	-16250
▁신도시	-16251
▁기각	-16252
▁hydro	-16253
▁접어들	-16254
대한민국	-16255
▁분의	-16256
▁식사가	-16257
▁파스타	-16258
▁기숙	-16259
급식	-16260
▁원가	-16261
GO	-16262
▁언어로	-16263
ibr	-16264
▁세로	-16265
▁탐험	-16266
▁파인	-16267
▁본능	-16268
▁일부가	-16269
▁이유다	-16270
기타	-16271
▁기도를	-16272
▁벌이고	-16273
▁바위	-16274
▁지식이	-16275
▁이어가고	-16276
▁몸으로	-16277
''	-16278
▁소재를	-16279
▁만족하는	-16280
▁먹튀검증	-16281
▁요청했다	-16282
▁진리를	-16283
▁있습니다마는	-16284
▁꾀	-16285
와도	-16286
한의	-16287
▁자체에	-16288
플란	-16289
▁선택하여	-16290
채권	-16291
back	-16292
▁마이너스	-16293
▁귀족	-16294
▁어떨까요	-16295
▁제발	-16296
▁시작하기	-16297
임스	-16298
▁가나	-16299
▁관계로	-16300
▁답변해	-16301
▁해외에서	-16302
▁갖다	-16303
▁곳곳에서	-16304
▁장미	-16305
▁무난	-16306
▁빠질	-16307
▁고유의	-16308
▁검정	-16309
▁김일	-16310
▁신념	-16311
▁과태료	-16312
밴드	-16313
reng	-16314
▁금융감독	-16315
▁자기소개	-16316
▁자신들이	-16317
▁언급했다	-16318
▁부양	-16319
▁형성하는	-16320
!)	-16321
▁입소	-16322
▁지극	-16323
▁구조가	-16324
▁antib	-16325
92	-16326
▁짠	-16327
▁타겟	-16328
▁목록을	-16329
▁어플리케이션	-16330
▁0.3	-16331
▁왕이	-16332
▁성과가	-16333
▁말아	-16334
▁밀착	-16335
▁면책	-16336
▁죽어	-16337
▁폭포	-16338
하고요	-16339
▁동성애	-16340
▁경선	-16341
▁구매하는	-16342
레스테	-16343
▁모습에	-16344
렌즈	-16345
요즘	-16346
▁지도자	-16347
▁투수	-16348
▁받았던	-16349
▁원활하게	-16350
사이트를	-16351
미팅	-16352
▁구체적	-16353
▁|▲	-16354
▁마련한	-16355
▁어긋	-16356
▁표정	-16357
▁Mar	-16358
▁다가오는	-16359
▁위험에	-16360
사원	-16361
소비자	-16362
▁열을	-16363
▁대응할	-16364
▁인체	-16365
▁에너지가	-16366
▁작게	-16367
▁주인이	-16368
▁공학	-16369
제이	-16370
▁찍는	-16371
▁발열	-16372
▁상부	-16373
▁집계됐다	-16374
▁이루어지지	-16375
▁실감	-16376
▁공룡	-16377
비용을	-16378
도전	-16379
▁의사일정	-16380
▁것보다는	-16381
티스	-16382
▁스팀	-16383
▁개발이	-16384
▁신체적	-16385
진짜	-16386
▁희귀	-16387
▁높았다	-16388
정말	-16389
▁금융기관	-16390
▁안경	-16391
졌는데	-16392
▁동서	-16393
▁확인하세요	-16394
▁집중할	-16395
▁대의	-16396
▁유가	-16397
▁Ro	-16398
▁듀얼	-16399
▁원내대표는	-16400
▁모았다	-16401
▁마지막에	-16402
시험을	-16403
▁리모델링	-16404
▁집은	-16405
▁법조	-16406
▁잡혀	-16407
▁절차가	-16408
▁씁	-16409
▁파크	-16410
▁바뀔	-16411
▁스노	-16412
▁게임에서	-16413
면접	-16414
▁Br	-16415
▁하나다	-16416
▁cyt	-16417
▁인플레이	-16418
아를	-16419
▁많다고	-16420
▁LTE	-16421
▁앱으로	-16422
▁나가서	-16423
▁보십시오	-16424
간을	-16425
▁자세로	-16426
▁q	-16427
▁적절히	-16428
▁proced	-16429
▁맛과	-16430
▁누구보다	-16431
NT	-16432
▁350	-16433
▁수반	-16434
▁장소에	-16435
▁마케팅을	-16436
맛집	-16437
목에	-16438
▁이용하고	-16439
것이다	-16440
▁직원의	-16441
En	-16442
▁장이	-16443
▁팔을	-16444
▁해야지	-16445
부르크	-16446
▁감액	-16447
ites	-16448
▁제한된	-16449
으으	-16450
▁동호	-16451
ulate	-16452
▁뜻입니다	-16453
▁돌고	-16454
▁득점	-16455
▁워드	-16456
ography	-16457
▁개정안에	-16458
▁궁금하신	-16459
▁되자	-16460
▁숫자를	-16461
▁types	-16462
▁방문을	-16463
보에	-16464
▁건네	-16465
▁경기에	-16466
▁순식간에	-16467
류에	-16468
▁뭔지	-16469
▁우대	-16470
자문	-16471
▁관행	-16472
abil	-16473
▁매장을	-16474
▁믿음이	-16475
▁새우	-16476
▁온몸	-16477
▁의혹이	-16478
▁기능에	-16479
▁문화와	-16480
▁있음에도	-16481
▁출국	-16482
으려면	-16483
태평양	-16484
▁단편	-16485
▁미소	-16486
▁외출	-16487
▁항암	-16488
▁운동이	-16489
▁하기로	-16490
▁항소	-16491
화면	-16492
▁톡톡	-16493
다만	-16494
사리	-16495
래프트	-16496
▁employ	-16497
끄럽	-16498
▁매진	-16499
▁뜻으로	-16500
hest	-16501
▁구입한	-16502
▁테슬	-16503
조치를	-16504
▁보호하고	-16505
▁relationship	-16506
어에	-16507
rect	-16508
▁}	-16509
▁경제에	-16510
▁중견	-16511
▁예술가	-16512
▁하수	-16513
▁순간에	-16514
▁ge	-16515
▁모던	-16516
분들은	-16517
▁석탄	-16518
안으로	-16519
▁times	-16520
▁어느정도	-16521
▁required	-16522
▁강조하고	-16523
▁건물이	-16524
imal	-16525
▁창고	-16526
~7	-16527
방침	-16528
반도	-16529
▁없는지	-16530
▁고가	-16531
▁번은	-16532
▁표명	-16533
▁Reg	-16534
▁도착한	-16535
▁신중한	-16536
VC	-16537
▁가다	-16538
▁강력하게	-16539
▁메커니즘	-16540
▁products	-16541
▁세면	-16542
▁이산화	-16543
▁170	-16544
▁펼치고	-16545
▁장로	-16546
▁쉽습니다	-16547
▁없이도	-16548
▁퍼져	-16549
▁판단할	-16550
보단	-16551
8000	-16552
▁가라앉	-16553
▁유예	-16554
▁유적	-16555
오가	-16556
▁응모	-16557
▁변하는	-16558
▁업체는	-16559
▁구강	-16560
▁한숨	-16561
었는지	-16562
▁샷	-16563
▁괜찮아	-16564
이었어요	-16565
▁사람이라면	-16566
/2	-16567
▁마련할	-16568
▁데이터는	-16569
▁ill	-16570
PGA	-16571
일자리	-16572
둥이	-16573
▁우체	-16574
전남	-16575
되었는데	-16576
회사가	-16577
▁남지	-16578
▁형태가	-16579
▁지난주	-16580
▁어디서나	-16581
▁regard	-16582
설이	-16583
▁간식	-16584
베이션	-16585
▁현저히	-16586
▁대상에	-16587
▁수요일	-16588
▁중국을	-16589
오면	-16590
ands	-16591
▁her	-16592
▁전쟁이	-16593
▁Tra	-16594
▁댄스	-16595
▁여성을	-16596
개인정보	-16597
▁선정됐다	-16598
▁사랑에	-16599
▁키우고	-16600
rial	-16601
▁회의에서	-16602
▁영어를	-16603
▁상태입니다	-16604
함의	-16605
▁중심이	-16606
▁그리고는	-16607
!’	-16608
▁원형	-16609
▁지친	-16610
▁힘들게	-16611
역으로	-16612
▁공기업	-16613
▁부회장	-16614
▁소개팅	-16615
▁OF	-16616
원인	-16617
blog	-16618
▁교육에	-16619
▁한시	-16620
▁즐거움	-16621
▁CC	-16622
▁샴푸	-16623
▁against	-16624
▁문제다	-16625
▁기증	-16626
▁연체	-16627
개에	-16628
▁베테랑	-16629
연도	-16630
▁국가와	-16631
되었지만	-16632
▁휴대전화	-16633
▁가열	-16634
▁우회	-16635
줘서	-16636
▁입장이다	-16637
아침	-16638
▁이하로	-16639
피가	-16640
▁소극	-16641
경남	-16642
적이었다	-16643
▁전월	-16644
머신	-16645
▁Red	-16646
▁타당한	-16647
하진	-16648
▁Ab	-16649
▁많았습니다	-16650
현의	-16651
▁보석	-16652
▁억압	-16653
▁연인	-16654
▁polic	-16655
언을	-16656
▁접할	-16657
▁단어가	-16658
▁떨어지고	-16659
▁CI	-16660
었으나	-16661
▁남자의	-16662
▁엎	-16663
▁김지	-16664
▁조그	-16665
▁창에서	-16666
▁short	-16667
▁침투	-16668
실과	-16669
▁기성	-16670
medi	-16671
▁투자의	-16672
▁파이프	-16673
▁알려주	-16674
강도	-16675
문서	-16676
섬유	-16677
▁상자	-16678
▁브로커	-16679
▁정의를	-16680
▁객실에서	-16681
▁71	-16682
▁소비자들의	-16683
▁적자	-16684
imension	-16685
▁방탄	-16686
리라고	-16687
▁require	-16688
개념	-16689
이신	-16690
플랜	-16691
▁비빔	-16692
4000	-16693
▁확산을	-16694
▁phen	-16695
▁랭킹	-16696
▁시설의	-16697
▁78	-16698
TT	-16699
▁뒤늦게	-16700
▁길어	-16701
▁호텔은	-16702
inding	-16703
▁서산	-16704
공식	-16705
▁과천	-16706
▁두뇌	-16707
즈음	-16708
▁개선된	-16709
블로	-16710
▁선택의	-16711
▁원유	-16712
매출	-16713
매도	-16714
▁유익한	-16715
▁영업을	-16716
비밀	-16717
▁로비	-16718
▁And	-16719
▁도널드	-16720
라미	-16721
롭지	-16722
저가	-16723
▁염색	-16724
hold	-16725
▁두드러	-16726
▁Part	-16727
▁나중	-16728
▁반해	-16729
▁한옥	-16730
▁뚜렷한	-16731
▁팀원	-16732
▁올해도	-16733
▁프로듀	-16734
▁민주노총	-16735
▁썬	-16736
▁왔던	-16737
▁여부는	-16738
▁않았기	-16739
▁바라보고	-16740
▁연산	-16741
현은	-16742
▁맡겨	-16743
▁play	-16744
▁요청할	-16745
▁AM	-16746
▁활발하게	-16747
마에	-16748
▁물질을	-16749
▁집중하고	-16750
▁일명	-16751
▁프로젝트에	-16752
▁benef	-16753
▁사령	-16754
테리아	-16755
▁적절하게	-16756
▁뱃	-16757
독한	-16758
이러한	-16759
▁experimental	-16760
anguage	-16761
▁Fl	-16762
▁났다	-16763
▁뜨거	-16764
▁팔아	-16765
▁년에	-16766
▁국토교통부	-16767
▁마실	-16768
▁판단하는	-16769
aving	-16770
73	-16771
▁만나볼	-16772
▁주님	-16773
▁검색하세요	-16774
▁점유율	-16775
▁compos	-16776
▁그늘	-16777
▁은은	-16778
6000	-16779
▁재배포	-16780
레스테롤	-16781
▁맘에	-16782
▁템플릿	-16783
메일	-16784
포지	-16785
▁명심	-16786
▁전무	-16787
▁얘기는	-16788
▁문제입니다	-16789
▁whether	-16790
▁나타냅니다	-16791
비한	-16792
▁좋다는	-16793
▁당국	-16794
정상회담	-16795
센터의	-16796
▁떨어졌다	-16797
HP	-16798
ao	-16799
tically	-16800
▁휴게	-16801
▁돌출	-16802
▁util	-16803
▁스크립	-16804
▁주부	-16805
▁출퇴근	-16806
▁필라	-16807
▁절망	-16808
▁동안의	-16809
▁모델의	-16810
▁듬	-16811
▁상대의	-16812
저런	-16813
문으로	-16814
▁재질	-16815
▁국어	-16816
달라는	-16817
추행	-16818
버리는	-16819
▁열대	-16820
▁개발과	-16821
어떻	-16822
▁기업가	-16823
더는	-16824
son	-16825
▁COVID	-16826
▁여러분께	-16827
▁공헌	-16828
▁인격	-16829
▁작품의	-16830
갔습니다	-16831
▁determined	-16832
이전	-16833
▁장면이	-16834
문자	-16835
▁관점	-16836
▁입양	-16837
▁먹어도	-16838
마음	-16839
▁Ed	-16840
▁노르	-16841
▁있었으며	-16842
▁청렴	-16843
▁폭이	-16844
▁언론에	-16845
워킹	-16846
서치	-16847
▁예산은	-16848
ots	-16849
년대에	-16850
으론	-16851
▁괜히	-16852
▁주에	-16853
드리도록	-16854
▁이식	-16855
▁자료는	-16856
▁가루	-16857
▁게이밍	-16858
▁원장님	-16859
이이	-16860
▁좌석	-16861
▁칼슘	-16862
▁재테크	-16863
]-	-16864
메리	-16865
ley	-16866
▁⑤	-16867
▁깨닫게	-16868
▁load	-16869
her	-16870
▁차량이	-16871
76	-16872
▁마리아	-16873
▁규정하는	-16874
ames	-16875
▁고객과	-16876
▁긁	-16877
거는	-16878
센터에	-16879
▁이번이	-16880
▁호흡을	-16881
연애	-16882
▁일산	-16883
▁크루즈	-16884
지주	-16885
▁디테일	-16886
▁특혜	-16887
드레	-16888
▁폐기물	-16889
▁사례는	-16890
▁감안하면	-16891
▁아이패드	-16892
▁알렉	-16893
▁참여했다	-16894
청소	-16895
▁달라는	-16896
▁플레이어는	-16897
▁determine	-16898
▁나라에서	-16899
▁살펴보겠습니다	-16900
자녀	-16901
▁너를	-16902
PM	-16903
충전	-16904
▁소득이	-16905
▁수요를	-16906
▁파업	-16907
▁지주	-16908
▁누구에게	-16909
▁압력을	-16910
▁진행합니다	-16911
▁cross	-16912
▁넘쳐	-16913
▁보습	-16914
▁지낸	-16915
라고도	-16916
▁해운대	-16917
▁테라	-16918
▁74	-16919
▁amo	-16920
▁전망된다	-16921
날로그	-16922
▁것이므로	-16923
세법	-16924
▁관료	-16925
과대학	-16926
▁선택하면	-16927
▁USD	-16928
▁수습	-16929
▁충성	-16930
▁도시를	-16931
▁(4)	-16932
▁동안에	-16933
▁광장	-16934
▁박영	-16935
베르	-16936
▁실시한다	-16937
▁problems	-16938
량으로	-16939
▁방지를	-16940
통상자원	-16941
▁역설	-16942
▁자동차를	-16943
너는	-16944
겠는가	-16945
▁법안을	-16946
▁내달	-16947
▁기자가	-16948
▁아님	-16949
▁갖다가	-16950
▁사망한	-16951
▁92	-16952
▁Em	-16953
▁이진	-16954
▁번호를	-16955
▁우선적으로	-16956
pd	-16957
▁능력과	-16958
▁낙태	-16959
▁버섯	-16960
▁정도만	-16961
▁한복	-16962
▁전략이	-16963
PI	-16964
아가씨	-16965
utes	-16966
▁시작해서	-16967
▁높다는	-16968
▁자리잡	-16969
▁양주	-16970
????	-16971
51	-16972
▁길고	-16973
숙이	-16974
어머니	-16975
▁BMW	-16976
▁행복하게	-16977
프린	-16978
것으로	-16979
▁들어왔	-16980
▁대학에서	-16981
PR	-16982
▁배틀	-16983
▁선수는	-16984
▁source	-16985
▁국가에	-16986
▁함께한	-16987
대장	-16988
활용	-16989
▁개관	-16990
▁남성이	-16991
▁토론을	-16992
▁패스트	-16993
▁공동주택	-16994
ious	-16995
▁무제한	-16996
▁부러	-16997
▁묵묵히	-16998
▁이대로	-16999
▁제도의	-17000
접종	-17001
한번	-17002
▁남기고	-17003
▁달러의	-17004
▁비중은	-17005
기존	-17006
퍼센	-17007
매수	-17008
▁스터	-17009
▁타협	-17010
입금	-17011
▁법의	-17012
▁럭셔리	-17013
백과	-17014
판은	-17015
시스코	-17016
▁순종	-17017
▁올라갈	-17018
▁reserved	-17019
▁하부	-17020
▁학생의	-17021
▁행위가	-17022
▁운영되는	-17023
▁성사	-17024
▁세계로	-17025
▁편지를	-17026
통의	-17027
▁학업	-17028
▁알았다	-17029
▁CA	-17030
use	-17031
▁존경하는	-17032
▁드레	-17033
▁임산	-17034
▁정직	-17035
급을	-17036
사이드	-17037
▁뜻하는	-17038
▁취지는	-17039
▁지난번에	-17040
모두	-17041
▁어떻게든	-17042
▁채취	-17043
▁teach	-17044
▁continu	-17045
71	-17046
▁흥미를	-17047
자입니다	-17048
▁정리하고	-17049
공사는	-17050
▁필자는	-17051
▁사라지고	-17052
▁발전과	-17053
▁해봤	-17054
▁환전	-17055
▁근무하는	-17056
▁소개한다	-17057
▁사진으로	-17058
active	-17059
포스	-17060
▁같지	-17061
▁대목	-17062
▁송금	-17063
▁아리	-17064
▁표를	-17065
▁흥분	-17066
▁운동은	-17067
▁작아	-17068
'…	-17069
▁말이야	-17070
▁은혜를	-17071
annel	-17072
▁인터넷에	-17073
▁대두	-17074
▁배분	-17075
▁회로	-17076
▁모습입니다	-17077
모로	-17078
사나	-17079
▁피를	-17080
기보다	-17081
▁강화할	-17082
▁느끼지	-17083
▁기장	-17084
▁브루	-17085
▁최우선	-17086
력도	-17087
글을	-17088
패션	-17089
▁저와	-17090
인데도	-17091
ethyl	-17092
▁녹아	-17093
▁랜덤	-17094
▁편도	-17095
▁반전	-17096
▁결정한	-17097
▁컴퓨터에	-17098
▁82	-17099
▁우울증	-17100
▁전력을	-17101
메가	-17102
▁주장하고	-17103
▁강구	-17104
권에서	-17105
gram	-17106
▁행정안전	-17107
▁배드민턴	-17108
▁주유	-17109
▁투명한	-17110
▁출혈	-17111
의회	-17112
았으며	-17113
▁해서는	-17114
▁증폭	-17115
▁말라고	-17116
▁공기를	-17117
▁지구의	-17118
▁상승했다	-17119
▁시작했고	-17120
TBC	-17121
▁liter	-17122
▁기능성	-17123
▁할인된	-17124
52	-17125
니와	-17126
▁via	-17127
능한	-17128
▁cri	-17129
▁밀집	-17130
▁넓게	-17131
▁네트	-17132
반이	-17133
▁규격	-17134
▁윌리	-17135
▁상하이	-17136
버렸다	-17137
▁탄탄한	-17138
ste	-17139
▁묻고	-17140
높은	-17141
▁다루고	-17142
상한	-17143
공사가	-17144
▁가면서	-17145
get	-17146
▁작전	-17147
방으로	-17148
▁답이	-17149
어떻게	-17150
▁중년	-17151
▁차가운	-17152
▁open	-17153
▁전자레인지	-17154
▁사용하실	-17155
안에서	-17156
▁사정이	-17157
▁넣으면	-17158
▁업무보고	-17159
▁버그	-17160
▁사우나	-17161
▁지분을	-17162
▁폭로	-17163
▁개선이	-17164
▁발견할	-17165
▁수상한	-17166
▁발생하면	-17167
▁still	-17168
▁쑥	-17169
부부	-17170
▁이별	-17171
▁부산의	-17172
▁detail	-17173
대기	-17174
▁테라스	-17175
귀포	-17176
왕의	-17177
▁사면	-17178
▁전망을	-17179
▁열릴	-17180
▁출연해	-17181
부서	-17182
이나마	-17183
▁진정으로	-17184
▁마우	-17185
▁활동하는	-17186
기준을	-17187
▁말씀에	-17188
▁코미디	-17189
▁고립	-17190
시대의	-17191
▁개발할	-17192
▁자금이	-17193
▁must	-17194
오의	-17195
▁민족의	-17196
▁의견은	-17197
order	-17198
씨에게	-17199
조작	-17200
▁묶어	-17201
▁연예인	-17202
▁힘들고	-17203
▁valid	-17204
▁안내를	-17205
에겐	-17206
조한	-17207
통계	-17208
박이	-17209
▁위원장이	-17210
▁｢	-17211
▁기호	-17212
vities	-17213
▁갖는다	-17214
▁특별법	-17215
▁삼성전자는	-17216
만화	-17217
▁견인	-17218
▁layer	-17219
▁당의	-17220
▁모시고	-17221
▁없음을	-17222
▁욕망	-17223
통합당	-17224
▁adj	-17225
OM	-17226
▁가입을	-17227
측이	-17228
▁마이클	-17229
▁가족들이	-17230
▁문화체육관광	-17231
▁air	-17232
▁개인적	-17233
▁아테	-17234
▁트렌드를	-17235
영웅	-17236
학이	-17237
▁자신도	-17238
▁스태	-17239
▁다시는	-17240
▁설치해	-17241
▁납니다	-17242
▁provided	-17243
▁닦아	-17244
타이마사지	-17245
▁쌍용	-17246
▁가격도	-17247
▁한결	-17248
▁변호사는	-17249
▁헤어드라이	-17250
▁포맷	-17251
▁Mon	-17252
▁모호	-17253
분쯤	-17254
▁항생	-17255
▁챙기	-17256
▁소개를	-17257
▁therapy	-17258
▁브랜드가	-17259
상승	-17260
▁ve	-17261
▁추가적으로	-17262
민주주의	-17263
▁밀양	-17264
▁산다	-17265
▁생산을	-17266
▁동굴	-17267
방법을	-17268
▁때와	-17269
▁아나운	-17270
폐기	-17271
▁일시적으로	-17272
vey	-17273
▁미세한	-17274
애플	-17275
엄마	-17276
▁성수	-17277
▁경험한	-17278
▁analyzed	-17279
▁드레스	-17280
▁외곽	-17281
▁When	-17282
▁할리	-17283
▁기사는	-17284
▁할게요	-17285
▁노력해	-17286
물류	-17287
oll	-17288
~19	-17289
Sh	-17290
▁잇따라	-17291
▁하이라	-17292
▁굶	-17293
▁스미	-17294
센터가	-17295
▁아니고요	-17296
▁사장이	-17297
응답	-17298
▁무산	-17299
▁디자인은	-17300
▁마른	-17301
▁빛의	-17302
▁심각하게	-17303
운송	-17304
▁지도를	-17305
▁since	-17306
▁LCD	-17307
▁유튜버	-17308
▁신작	-17309
정책의	-17310
▁광고가	-17311
▁사태를	-17312
▁지나가	-17313
▁3~4	-17314
▁개인정보보호	-17315
▁chall	-17316
합을	-17317
▁뒤에서	-17318
osure	-17319
▁타깃	-17320
▁task	-17321
itro	-17322
.30	-17323
▁다할	-17324
LED	-17325
특별시	-17326
▁주제는	-17327
▁메신저	-17328
▁결정적인	-17329
의무	-17330
▁월간	-17331
▁call	-17332
▁늘리는	-17333
불교	-17334
▁여깁니다	-17335
▁로또	-17336
추는	-17337
▁능동	-17338
▁피드백을	-17339
▁재화	-17340
저널	-17341
▁필요도	-17342
▁둘레	-17343
▁비례대표	-17344
▁신도	-17345
▁영상으로	-17346
▁다리가	-17347
▁상대방이	-17348
그리	-17349
▁participants	-17350
▁주장은	-17351
▁영상에서	-17352
2-	-17353
ques	-17354
▁손흥	-17355
▁그곳에서	-17356
▁단점이	-17357
지원을	-17358
▁EC	-17359
▁체험을	-17360
기초	-17361
ye	-17362
▁우리와	-17363
▁속하는	-17364
▁자녀가	-17365
ories	-17366
▁future	-17367
르의	-17368
▁축산	-17369
▁행위는	-17370
▁끌려	-17371
▁멈춰	-17372
금액은	-17373
징어	-17374
▁위원님이	-17375
uation	-17376
▁비밀번호를	-17377
▁군인	-17378
lectr	-17379
폭이	-17380
관리자	-17381
없음	-17382
▁말과	-17383
▁하라고	-17384
▁킬	-17385
▁때문이라고	-17386
▁색을	-17387
▁직원들은	-17388
저것	-17389
aff	-17390
▁임무	-17391
▁키보	-17392
▁education	-17393
▁거칠	-17394
▁글자	-17395
스트로	-17396
▁최강	-17397
▁환경과	-17398
▁놀러	-17399
▁ISO	-17400
▁fore	-17401
▁쇄	-17402
오버	-17403
▁막고	-17404
▁표지	-17405
▁스위치	-17406
▁bound	-17407
▁명문	-17408
▁관해서	-17409
▁공간의	-17410
▁기업인	-17411
▁디젤	-17412
▁이병	-17413
su	-17414
▁근육을	-17415
▁심의를	-17416
거라	-17417
희가	-17418
▁이른다	-17419
▁view	-17420
omes	-17421
ectiv	-17422
위원이	-17423
▁교회는	-17424
문화의	-17425
▁성령의	-17426
천여	-17427
▁개최한다	-17428
▁대피	-17429
▁문자를	-17430
▁이메일을	-17431
지도록	-17432
▁세상은	-17433
▁가르치는	-17434
orb	-17435
▁여행자들이	-17436
▁자국	-17437
▁record	-17438
급의	-17439
벤트	-17440
▁차에	-17441
▁바보	-17442
▁나라에	-17443
▁아끼지	-17444
▁예상치	-17445
▁터뜨	-17446
전형	-17447
▁어머니가	-17448
▁오차	-17449
▁베르	-17450
▁자연을	-17451
▁tissue	-17452
▁최종적으로	-17453
▁블로그에	-17454
▁지속가능한	-17455
겠네요	-17456
ocal	-17457
▁얘기하는	-17458
IST	-17459
▁계획하고	-17460
▁경향	-17461
▁시스템으로	-17462
▁negative	-17463
언니	-17464
▁구두	-17465
▁올해의	-17466
▁분비	-17467
▁시작된다	-17468
▁범위가	-17469
▁되었으면	-17470
▁양보	-17471
조절	-17472
▁provides	-17473
▁진리	-17474
▁업체를	-17475
▁처벌을	-17476
▁들러	-17477
▁배고	-17478
카카오	-17479
화이트	-17480
▁여자는	-17481
▁consum	-17482
▁6000	-17483
▁프리미어	-17484
▁까다로운	-17485
▁없으므로	-17486
▁역전	-17487
▁대표적	-17488
칙을	-17489
▁활용하고	-17490
▁챌린	-17491
▁현실에	-17492
▁잠정	-17493
▁순간을	-17494
▁미드	-17495
▁설치가	-17496
▁짱	-17497
▁놓인	-17498
류는	-17499
움의	-17500
▁귀한	-17501
▁납입	-17502
벌이	-17503
▁#[	-17504
▁뷔페	-17505
▁라운드	-17506
▁정책은	-17507
▁후보로	-17508
▁성매매	-17509
▁94	-17510
▁거둔	-17511
▁절단	-17512
▁분야는	-17513
추를	-17514
▁데도	-17515
▁북쪽	-17516
▁대접	-17517
▁파격	-17518
▁Ctrip	-17519
▁잃지	-17520
▁피가	-17521
▁답변이	-17522
▁때문이었다	-17523
▁전하고	-17524
최대	-17525
▁부산광역시	-17526
▁NC	-17527
▁배경을	-17528
▁오락	-17529
▁명소	-17530
텃밭	-17531
OA	-17532
MR	-17533
폴리	-17534
▁잔디	-17535
▁대학을	-17536
놓는	-17537
▁여당	-17538
시트	-17539
▁권리가	-17540
▁도입을	-17541
83	-17542
▁때문이죠	-17543
▁큽	-17544
오지	-17545
▁놀랐	-17546
Ad	-17547
표시	-17548
▁Cr	-17549
▁몸은	-17550
▁분담	-17551
▁테니스	-17552
aid	-17553
▁쉬워	-17554
▁이뤄질	-17555
하든	-17556
▁의정	-17557
▁아름다움을	-17558
▁좋아합니다	-17559
관리에	-17560
▁확인해야	-17561
▁업체의	-17562
▁실시했다	-17563
손해	-17564
unctions	-17565
▁틀림	-17566
가지를	-17567
▁성장과	-17568
▁거리두기	-17569
봐요	-17570
아마	-17571
▁상황과	-17572
▁맡았다	-17573
▁포르투	-17574
브이	-17575
하였는데	-17576
▁이번에도	-17577
▁우리나라에서	-17578
▁검찰의	-17579
▁비용으로	-17580
이니까	-17581
렸다는	-17582
▁표현한	-17583
5.	-17584
롭다	-17585
▁산업혁	-17586
▁바꿨	-17587
▁바를	-17588
▁판매하고	-17589
▁빚을	-17590
시키며	-17591
▁나이트	-17592
ii	-17593
▁꽤나	-17594
▁클라이언트	-17595
▁고래	-17596
▁수축	-17597
웁니다	-17598
▁도래	-17599
▁산소	-17600
▁진행자	-17601
▁이동할	-17602
▁숨겨	-17603
Al	-17604
레일	-17605
워치	-17606
야지	-17607
▁판정	-17608
▁슬림	-17609
사항은	-17610
▁옆으로	-17611
▁안에는	-17612
▁열악한	-17613
▁input	-17614
▁고급스러운	-17615
▁service	-17616
▁나오게	-17617
▁측에	-17618
▁Apple	-17619
▁중시	-17620
과거	-17621
쓰는	-17622
BI	-17623
▁텍사스	-17624
▁detection	-17625
▁주셔야	-17626
▁수준에서	-17627
▁트레이닝	-17628
▁중요하지	-17629
▁limit	-17630
▁사이로	-17631
▁씨트립	-17632
▁무게를	-17633
▁이동하는	-17634
▁주기적으로	-17635
▁손꼽	-17636
▁방안이	-17637
▁짚어	-17638
▁technology	-17639
▁있다며	-17640
▁되나	-17641
74	-17642
▁불렀	-17643
과목	-17644
▁일어나지	-17645
하거든요	-17646
▁지속가능	-17647
▁외교부	-17648
▁일으켜	-17649
▁처음이다	-17650
▁피어	-17651
▁공부하는	-17652
▁주식회사	-17653
▁신이	-17654
▁캡처	-17655
효과가	-17656
▁느낀다	-17657
▁없으니까	-17658
동생	-17659
▁위치가	-17660
▁페이지에	-17661
▁Air	-17662
-16	-17663
▁남양주	-17664
공동체	-17665
▁공급을	-17666
▁연락이	-17667
▁화요일	-17668
레나	-17669
▁좋았	-17670
보험료	-17671
오카	-17672
지하	-17673
고속도로	-17674
▁electro	-17675
▁책에	-17676
▁폭염	-17677
▁걱정을	-17678
▁코트	-17679
벤처기업	-17680
▁거룩한	-17681
▁단독주택	-17682
▁싶고	-17683
▁전임	-17684
▁거기에서	-17685
▁73	-17686
▁가슴을	-17687
되었거나	-17688
▁룸서비스	-17689
▁교도	-17690
▁실패를	-17691
▁지사는	-17692
▁사드	-17693
▁받아들일	-17694
▁length	-17695
TR	-17696
주시는	-17697
▁어머니의	-17698
수영	-17699
▁쫓아	-17700
▁비공개	-17701
▁mice	-17702
orn	-17703
▁압수수	-17704
▁조정을	-17705
▁부가가치	-17706
하였을	-17707
▁고유한	-17708
▁업무가	-17709
박사	-17710
▁중기	-17711
▁올라온	-17712
▁확인합니다	-17713
EE	-17714
▁유머	-17715
▁도우	-17716
▁기록이	-17717
▁다양하고	-17718
▁연재	-17719
▁경유	-17720
▁귀가	-17721
▁initial	-17722
▁감기	-17723
▁넘기	-17724
심하게	-17725
▁Results	-17726
소장	-17727
▁보건복지부	-17728
▁프로젝트의	-17729
jective	-17730
▁신년	-17731
▁애초에	-17732
▁예상됩니다	-17733
▁보신	-17734
병의	-17735
▁도전을	-17736
▁곰팡	-17737
▁두피	-17738
▁박성	-17739
서야	-17740
심에서	-17741
▁analys	-17742
▁견적	-17743
▁노벨	-17744
▁투자할	-17745
▁좋았습니다	-17746
위안	-17747
▁가파	-17748
▁부작용이	-17749
▁시드	-17750
이기에	-17751
▁산업에	-17752
▁생체	-17753
▁아세	-17754
▁지각	-17755
프랑	-17756
▁학교의	-17757
▁가지의	-17758
▁만족도	-17759
▁무리한	-17760
▁신체의	-17761
▁might	-17762
54	-17763
방식을	-17764
aken	-17765
▁샐러드	-17766
▁오페라	-17767
▁아날로그	-17768
▁목요일	-17769
▁여신	-17770
▁가져온	-17771
▁개개	-17772
▁해볼	-17773
▁김대중	-17774
림의	-17775
방역	-17776
▁맞물	-17777
▁아크	-17778
코딩	-17779
▁담임	-17780
▁proteins	-17781
!'	-17782
▁도울	-17783
▁건데요	-17784
▁론칭	-17785
▁탈모	-17786
▁클릭하여	-17787
▁influence	-17788
▁생생한	-17789
~1	-17790
▁경제적인	-17791
티아	-17792
▁신청한	-17793
▁나타내	-17794
터와	-17795
▁세우는	-17796
▁위안부	-17797
▁풋	-17798
예수	-17799
▁큽니다	-17800
▁우선순	-17801
▁제거하고	-17802
▁뒤에는	-17803
▁원칙에	-17804
▁제목의	-17805
▁좋겠다는	-17806
타로	-17807
티나	-17808
▁시켰	-17809
대회를	-17810
코노	-17811
공간을	-17812
▁너무도	-17813
▁자격증을	-17814
▁domain	-17815
▁Techn	-17816
포장	-17817
▁보증하지	-17818
보이	-17819
해준	-17820
승인	-17821
영화제	-17822
▁density	-17823
▁마인	-17824
▁회의실	-17825
▁생각했던	-17826
▁역사에	-17827
ably	-17828
중간	-17829
▁개발된	-17830
▁소비자들이	-17831
▁납득	-17832
93	-17833
가슴	-17834
▁개장	-17835
▁상대를	-17836
미녀	-17837
▁타워	-17838
▁uni	-17839
▁비슷하게	-17840
▁방수	-17841
▁그거는	-17842
▁풍성한	-17843
▁정화	-17844
▁만들어내는	-17845
▁풍성	-17846
▁정책과	-17847
▁은근	-17848
▁현명한	-17849
▁identify	-17850
▁체온	-17851
▁보컬	-17852
▁믿는다	-17853
idd	-17854
▁러시아의	-17855
유예	-17856
▁성범죄	-17857
하셔도	-17858
ott	-17859
약의	-17860
▁cer	-17861
▁마련됐다	-17862
————	-17863
티는	-17864
▁로스	-17865
▁VPN	-17866
▁확인했다	-17867
▁areas	-17868
▁화해	-17869
▁거라는	-17870
▁버스를	-17871
▁않고도	-17872
▁달리는	-17873
▁심층	-17874
해보는	-17875
olar	-17876
▁병원을	-17877
락한	-17878
▁방에	-17879
▁증인	-17880
▁수시	-17881
▁우린	-17882
▁것만으로도	-17883
▁요구할	-17884
▁physical	-17885
만원에	-17886
▁주파수	-17887
▁팔고	-17888
종으로	-17889
독립	-17890
agnetic	-17891
▁팬데믹	-17892
네이버	-17893
▁배송비	-17894
▁돼지고	-17895
▁계단	-17896
▁모금	-17897
▁국정원	-17898
▁가능하다고	-17899
obe	-17900
▁못하도록	-17901
uck	-17902
▁의자	-17903
▁후쿠시마	-17904
품은	-17905
▁기저	-17906
▁만들면	-17907
▁여파로	-17908
sych	-17909
▁도시계획	-17910
?[	-17911
▁마구	-17912
▁해산	-17913
▁같고요	-17914
▁시행하고	-17915
▁마찬가지입니다	-17916
▁싣	-17917
의사	-17918
▁연합뉴스	-17919
▁하나님과	-17920
KB	-17921
▁푼	-17922
▁교원	-17923
▁새마을	-17924
▁소나무	-17925
▁캐주얼	-17926
56	-17927
중학교	-17928
동맹	-17929
하기만	-17930
▁계실	-17931
지수는	-17932
▁now	-17933
▁점입니다	-17934
···	-17935
▁몰두	-17936
레이드	-17937
▁콘크리트	-17938
▁장군	-17939
▁물은	-17940
▁한우	-17941
▁신청이	-17942
▁됐어요	-17943
▁물로	-17944
▁보정	-17945
▁appear	-17946
접수	-17947
▁밀접한	-17948
▁어렸을	-17949
▁아랫	-17950
▁살아갈	-17951
▁역사는	-17952
iving	-17953
ycl	-17954
▁요구가	-17955
▁유학생	-17956
▁studied	-17957
…'	-17958
간이	-17959
▁형성되는	-17960
▁variables	-17961
▁표출	-17962
▁3.0	-17963
▁Thus	-17964
로봇	-17965
▁다시금	-17966
▁증거가	-17967
▁순차적으로	-17968
▁노릇	-17969
▁일방적으로	-17970
▁한양	-17971
▁계열사	-17972
▁먼지	-17973
▁용의	-17974
▁임용	-17975
▁아니더라도	-17976
▁넷째	-17977
협약을	-17978
▁시설과	-17979
▁학사	-17980
▁나무를	-17981
▁쪽이	-17982
피부	-17983
▁PR	-17984
▁시선	-17985
▁액체	-17986
▁유한	-17987
▁DM	-17988
▁여호	-17989
▁개발해	-17990
▁격렬한	-17991
eg	-17992
▁행위에	-17993
연료	-17994
▁책에서	-17995
▁엄마의	-17996
▁미소를	-17997
디언	-17998
~~~~	-17999
▁아키텍	-18000
▁상징하는	-18001
▁쓴다	-18002
▁controll	-18003
▁민중	-18004
본부는	-18005
▁Although	-18006
▁정무	-18007
개월이	-18008
달을	-18009
선교	-18010
에어	-18011
▁산업을	-18012
▁plas	-18013
▁스토리를	-18014
특정	-18015
곳이	-18016
▁되니	-18017
▁영광을	-18018
▁Sk	-18019
▁닿는	-18020
▁잉글	-18021
운동의	-18022
▁이것저것	-18023
▁채굴	-18024
▁말씀드리면	-18025
▁76	-18026
oles	-18027
▁유죄	-18028
▁머리에	-18029
▁방사선	-18030
▁1950	-18031
▁안타까운	-18032
▁확대할	-18033
▁싸우	-18034
▁보는데	-18035
▁부상을	-18036
▁보이게	-18037
▁청정	-18038
▁제안한	-18039
▁유연하게	-18040
▁살균	-18041
▁운이	-18042
협동조합	-18043
▁대하여는	-18044
종일	-18045
▁담백	-18046
▁formation	-18047
▁대표를	-18048
▁효율을	-18049
▁컸다	-18050
박을	-18051
▁MA	-18052
▁특징이	-18053
하십니다	-18054
▁건국	-18055
▁커서	-18056
▁종전	-18057
▁Korean	-18058
▁성경을	-18059
▁정해져	-18060
▁가령	-18061
▁바이어	-18062
▁개선하는	-18063
▁극히	-18064
▁Min	-18065
▁하여야	-18066
********	-18067
원자	-18068
▁자폐	-18069
▁구단	-18070
▁봅시다	-18071
▁수차례	-18072
▁용어를	-18073
▁산업통상자원	-18074
▁고객들의	-18075
▁가슴에	-18076
▁믿어	-18077
▁지킬	-18078
스트는	-18079
▁스테이크	-18080
▁confir	-18081
▁침몰	-18082
ㅋㅋㅋ	-18083
▁헨	-18084
▁doc	-18085
▁인간과	-18086
소식	-18087
▁상황에서도	-18088
▁물의	-18089
▁위함	-18090
▁동쪽	-18091
▁학생은	-18092
▁상승한	-18093
▁파악하는	-18094
acc	-18095
▁경찰청	-18096
▁들으며	-18097
▁선정한	-18098
▁합의가	-18099
▁침략	-18100
▁문제점이	-18101
▁분석하는	-18102
▁너도	-18103
▁유흥	-18104
▁인형	-18105
▁기록하는	-18106
▁주석	-18107
업체의	-18108
▁건전	-18109
▁철수	-18110
▁원리를	-18111
▁싶었던	-18112
개와	-18113
91	-18114
꺼이	-18115
▁되었던	-18116
▁피하기	-18117
▁재외	-18118
▁침입	-18119
분할	-18120
▁원칙으로	-18121
▁독재	-18122
▁초음파	-18123
▁전당	-18124
▁찔	-18125
▁구성이	-18126
DM	-18127
▁잔뜩	-18128
▁검토해	-18129
▁해준	-18130
▁admin	-18131
학술	-18132
GS	-18133
미로	-18134
야마	-18135
소리가	-18136
▁Java	-18137
▁크기는	-18138
▁여러분을	-18139
▁시킨	-18140
▁종업	-18141
▁유지하며	-18142
▁찍을	-18143
년동안	-18144
▁의문을	-18145
▁도시재생	-18146
▁이야기입니다	-18147
우편	-18148
황이	-18149
▁동의합니다	-18150
▁position	-18151
▁가성비	-18152
▁지침을	-18153
▁폭스	-18154
간담	-18155
블러	-18156
▁의의	-18157
입력	-18158
▁defined	-18159
▁전과	-18160
▁조형	-18161
▁자기를	-18162
정책과	-18163
▁옹호	-18164
경찰청	-18165
요리	-18166
▁국고	-18167
▁넓혀	-18168
▁전달할	-18169
▁노력해야	-18170
▁Network	-18171
▁보령	-18172
▁식약	-18173
▁손님이	-18174
▁인기있는	-18175
▁떠날	-18176
▁시킬	-18177
▁의견도	-18178
▁직업을	-18179
▁87	-18180
2]	-18181
▁리스	-18182
▁유무	-18183
▁소파에	-18184
▁예컨대	-18185
eness	-18186
져요	-18187
▁상에	-18188
2023	-18189
위원장이	-18190
졌기	-18191
▁살아온	-18192
▁상이	-18193
▁Method	-18194
▁팟	-18195
-24	-18196
▁노력하겠습니다	-18197
▁구축하는	-18198
▁streng	-18199
▁하겠다고	-18200
▁least	-18201
만약	-18202
▁국가는	-18203
▁물고기	-18204
▁김천	-18205
▁샤오	-18206
▁전략은	-18207
▁촌	-18208
지침	-18209
▁끌었다	-18210
▁재택	-18211
▁보장하는	-18212
▁질병을	-18213
거지	-18214
▁도발	-18215
▁엄마는	-18216
▁키가	-18217
▁이해하지	-18218
면과	-18219
세상	-18220
지역에서	-18221
▁올바르게	-18222
▁포기하지	-18223
▁Bo	-18224
소수	-18225
▁등재	-18226
▁느낌의	-18227
era	-18228
▁사은	-18229
▁제기한	-18230
▁꿈은	-18231
▁맨날	-18232
▁오기	-18233
▁탐지	-18234
바퀴	-18235
▁선착순	-18236
EF	-18237
론에	-18238
▁꿈이	-18239
약관	-18240
▁환경의	-18241
▁수상했다	-18242
▁대통령령으로	-18243
▁뉴시스	-18244
▁부위에	-18245
▁원인으로	-18246
기능을	-18247
들었다	-18248
▁여성들이	-18249
tivities	-18250
▁한진	-18251
▁화살	-18252
lying	-18253
두천	-18254
모토	-18255
▁어머	-18256
▁담았다	-18257
▁판단했다	-18258
분께	-18259
▁출동	-18260
▁이유도	-18261
중소기업	-18262
▁가볼	-18263
▁장애가	-18264
▁고품질	-18265
▁현상은	-18266
▁만들어낸	-18267
▁SSD	-18268
▁호응을	-18269
▁리드	-18270
▁문경	-18271
▁박지	-18272
▁이준	-18273
▁얘기다	-18274
▁여러분들의	-18275
▁Ⅲ	-18276
움은	-18277
▁신용등급	-18278
▁내용도	-18279
▁변하지	-18280
▁성장에	-18281
ether	-18282
프와	-18283
exam	-18284
▁사탄	-18285
여행을	-18286
▁아냐	-18287
▁서울에	-18288
▁임무를	-18289
벤션	-18290
ECT	-18291
▁공청	-18292
tered	-18293
동포	-18294
▁불어넣	-18295
▁고등학생	-18296
▁means	-18297
갈비	-18298
▁수호	-18299
▁쟁점	-18300
로이드	-18301
7000	-18302
▁경력을	-18303
▁교재	-18304
노래	-18305
대고	-18306
▁장갑	-18307
▁인문학	-18308
ush	-18309
▁복무	-18310
▁얼른	-18311
통은	-18312
닐라	-18313
ids	-18314
▁라스	-18315
▁서둘러	-18316
▁표정을	-18317
▁고리	-18318
▁탐방	-18319
▁일정이	-18320
▁마일	-18321
▁파일이	-18322
▁plan	-18323
▁기기를	-18324
직업	-18325
▁씨를	-18326
ident	-18327
발전을	-18328
▁한가지	-18329
▁공급이	-18330
무게	-18331
전주	-18332
atform	-18333
▁공짜	-18334
단계로	-18335
▁reduction	-18336
더가	-18337
▁정체성을	-18338
▁necess	-18339
▁의문이	-18340
를린	-18341
▁제안했다	-18342
▁못해서	-18343
wn	-18344
▁주어야	-18345
▁인명	-18346
▁World	-18347
▁날에	-18348
▁1992	-18349
▁교과서	-18350
▁대다수	-18351
▁온도가	-18352
▁담당하고	-18353
오리	-18354
▁91	-18355
▁반영해	-18356
이었다고	-18357
▁캘린	-18358
▁탄수	-18359
▁데모	-18360
▁주의사항	-18361
▁콜레스테롤	-18362
▁반납	-18363
▁비결	-18364
▁합산	-18365
clus	-18366
▁저장된	-18367
받게	-18368
▁구로	-18369
▁더한	-18370
roph	-18371
▁culture	-18372
▁쿠션	-18373
▁더구나	-18374
▁업체에	-18375
타의	-18376
▁중량	-18377
▁퀸	-18378
▁집필	-18379
▁논란을	-18380
▁정부를	-18381
▁매장에서	-18382
pecial	-18383
목차	-18384
yle	-18385
▁부자가	-18386
-18	-18387
▁km	-18388
▁다룰	-18389
▁지지하는	-18390
[...]
